<pad>	0
<unk>	0
<s>	0
</s>	0
▁t	-0
ou	-1
re	-2
▁d	-3
▁a	-4
▁p	-5
▁s	-6
on	-7
is	-8
en	-9
es	-10
▁l	-11
er	-12
▁c	-13
in	-14
▁m	-15
he	-16
▁I	-17
an	-18
▁n	-19
it	-20
▁w	-21
om	-22
▁f	-23
qu	-24
as	-25
▁b	-26
▁y	-27
ll	-28
▁v	-29
at	-30
▁you	-31
▁de	-32
▁h	-33
▁to	-34
ous	-35
▁qu	-36
ar	-37
ai	-38
▁T	-39
ve	-40
or	-41
ent	-42
Je	-43
un	-44
▁the	-45
▁th	-46
est	-47
ing	-48
▁g	-49
▁pas	-50
le	-51
ais	-52
▁que	-53
ed	-54
▁?	-55
et	-56
us	-57
▁ne	-58
eu	-59
▁j	-60
ot	-61
our	-62
▁un	-63
▁o	-64
▁re	-65
te	-66
ri	-67
oi	-68
▁me	-69
▁à	-70
▁le	-71
▁Tom	-72
ant	-73
ait	-74
▁W	-75
▁la	-76
▁su	-77
ow	-78
se	-79
▁in	-80
il	-81
id	-82
im	-83
▁be	-84
▁ha	-85
ce	-86
▁is	-87
▁e	-88
▁tr	-89
ay	-90
▁en	-91
▁do	-92
lle	-93
Il	-94
▁H	-95
ion	-96
ch	-97
▁r	-98
▁he	-99
out	-100
▁of	-101
▁est	-102
▁ch	-103
▁pr	-104
au	-105
▁vous	-106
▁an	-107
ét	-108
▁ce	-109
ment	-110
▁that	-111
al	-112
ld	-113
ke	-114
me	-115
ic	-116
▁te	-117
hat	-118
▁Y	-119
ain	-120
▁li	-121
▁on	-122
▁se	-123
▁The	-124
ver	-125
▁pl	-126
ie	-127
os	-128
▁You	-129
pp	-130
tu	-131
ir	-132
▁par	-133
▁for	-134
eux	-135
▁com	-136
oo	-137
▁don	-138
tre	-139
▁was	-140
▁He	-141
ons	-142
gh	-143
Tom	-144
ren	-145
▁it	-146
▁k	-147
ter	-148
▁we	-149
ad	-150
▁have	-151
and	-152
▁pour	-153
▁au	-154
aire	-155
end	-156
av	-157
▁S	-158
▁une	-159
▁D	-160
ag	-161
▁as	-162
ill	-163
▁M	-164
ont	-165
▁je	-166
ould	-167
am	-168
vous	-169
▁not	-170
▁want	-171
▁ét	-172
▁your	-173
ac	-174
▁this	-175
res	-176
ne	-177
▁suis	-178
ble	-179
ut	-180
ans	-181
ght	-182
▁go	-183
▁all	-184
op	-185
ur	-186
ien	-187
▁st	-188
▁can	-189
▁We	-190
ée	-191
oir	-192
▁les	-193
▁my	-194
all	-195
now	-196
que	-197
▁so	-198
ue	-199
▁at	-200
▁tu	-201
▁dé	-202
▁faire	-203
▁know	-204
ore	-205
▁A	-206
▁mon	-207
ère	-208
ers	-209
▁did	-210
Nous	-211
ith	-212
ang	-213
▁av	-214
if	-215
ui	-216
ure	-217
▁with	-218
ard	-219
mp	-220
▁som	-221
▁like	-222
ly	-223
▁It	-224
▁ave	-225
tes	-226
▁are	-227
▁con	-228
Tu	-229
Vous	-230
▁des	-231
▁She	-232
ink	-233
▁!	-234
ig	-235
▁pro	-236
ol	-237
▁ê	-238
▁sh	-239
ens	-240
Elle	-241
ust	-242
▁dans	-243
ois	-244
hing	-245
▁plus	-246
▁nous	-247
▁fr	-248
ort	-249
ess	-250
ct	-251
ez	-252
▁ex	-253
ès	-254
st	-255
ook	-256
ave	-257
▁ab	-258
ça	-259
her	-260
ose	-261
▁fait	-262
▁ri	-263
éc	-264
▁what	-265
ire	-266
eur	-267
ap	-268
up	-269
▁wh	-270
▁think	-271
ary	-272
▁ça	-273
one	-274
oin	-275
▁ma	-276
▁What	-277
▁ar	-278
▁Wh	-279
ong	-280
▁sur	-281
▁his	-282
rai	-283
el	-284
▁C	-285
▁tout	-286
▁ta	-287
ime	-288
▁any	-289
▁veux	-290
és	-291
ier	-292
▁him	-293
▁al	-294
▁du	-295
▁Do	-296
▁am	-297
ul	-298
▁dev	-299
ation	-300
▁Th	-301
▁avec	-302
▁qui	-303
▁ver	-304
de	-305
ouv	-306
▁wor	-307
▁sa	-308
ette	-309
ici	-310
▁us	-311
▁quel	-312
bl	-313
ci	-314
▁Mary	-315
▁dis	-316
dre	-317
▁comp	-318
imp	-319
ense	-320
▁and	-321
ood	-322
▁They	-323
are	-324
pe	-325
▁part	-326
oy	-327
age	-328
▁about	-329
▁si	-330
▁time	-331
ate	-332
▁get	-333
mps	-334
onne	-335
Le	-336
che	-337
▁gr	-338
ite	-339
▁cr	-340
▁et	-341
▁here	-342
▁very	-343
mes	-344
▁sont	-345
▁peu	-346
▁ré	-347
ost	-348
▁fe	-349
ive	-350
▁didn	-351
ind	-352
ally	-353
▁see	-354
ff	-355
cc	-356
▁out	-357
ux	-358
▁man	-359
▁This	-360
▁son	-361
▁app	-362
otre	-363
▁That	-364
ours	-365
la	-366
ouve	-367
ide	-368
▁ren	-369
oup	-370
ten	-371
Que	-372
▁up	-373
ro	-374
very	-375
▁dit	-376
uis	-377
▁très	-378
ille	-379
▁How	-380
▁had	-381
Ne	-382
ine	-383
rais	-384
ome	-385
▁were	-386
▁need	-387
▁mais	-388
▁pense	-389
▁her	-390
▁vou	-391
▁happ	-392
▁être	-393
si	-394
Ce	-395
▁ser	-396
day	-397
▁has	-398
rent	-399
Pour	-400
▁dem	-401
▁one	-402
ase	-403
▁temps	-404
▁moi	-405
quoi	-406
ight	-407
▁tou	-408
▁Don	-409
mer	-410
alk	-411
Com	-412
La	-413
▁will	-414
▁going	-415
ry	-416
je	-417
▁cl	-418
▁vrai	-419
app	-420
té	-421
lles	-422
▁été	-423
▁lui	-424
▁votre	-425
▁should	-426
▁peux	-427
▁ag	-428
oun	-429
▁était	-430
▁just	-431
▁êtes	-432
▁beau	-433
▁B	-434
here	-435
▁res	-436
▁sais	-437
use	-438
▁che	-439
pr	-440
▁jam	-441
ast	-442
▁chose	-443
▁Are	-444
▁no	-445
lp	-446
▁L	-447
ner	-448
ions	-449
▁look	-450
▁good	-451
ak	-452
ven	-453
▁é	-454
▁es	-455
ance	-456
other	-457
Les	-458
▁cette	-459
▁ici	-460
▁long	-461
iez	-462
able	-463
avai	-464
ice	-465
▁help	-466
▁P	-467
▁jamais	-468
▁mar	-469
uit	-470
▁dire	-471
ays	-472
▁too	-473
▁work	-474
▁ton	-475
thing	-476
▁travai	-477
▁ent	-478
ass	-479
▁parl	-480
▁E	-481
ob	-482
▁would	-483
Ils	-484
▁co	-485
▁cela	-486
ought	-487
▁bien	-488
ress	-489
▁pens	-490
▁vraiment	-491
aid	-492
air	-493
▁there	-494
ière	-495
▁could	-496
mb	-497
▁car	-498
▁My	-499
une	-500
▁really	-501
dy	-502
ade	-503
▁il	-504
Pourquoi	-505
▁tell	-506
▁from	-507
art	-508
▁Why	-509
ist	-510
▁pers	-511
▁train	-512
ck	-513
▁imp	-514
ack	-515
ep	-516
▁toi	-517
▁F	-518
iff	-519
lf	-520
▁ca	-521
ors	-522
▁every	-523
▁by	-524
▁some	-525
▁att	-526
Qu	-527
iv	-528
▁br	-529
ér	-530
▁ad	-531
▁N	-532
lease	-533
▁talk	-534
▁lo	-535
ign	-536
orte	-537
ité	-538
moi	-539
▁diff	-540
▁does	-541
▁bes	-542
▁per	-543
▁quelque	-544
▁been	-545
arg	-546
▁seu	-547
cher	-548
riend	-549
anger	-550
▁pass	-551
▁besoin	-552
coup	-553
ête	-554
ord	-555
▁liv	-556
▁sav	-557
▁stu	-558
▁got	-559
▁come	-560
▁cont	-561
▁more	-562
▁never	-563
▁voul	-564
▁off	-565
▁now	-566
▁than	-567
▁pe	-568
▁fin	-569
▁demand	-570
elle	-571
ise	-572
▁There	-573
ient	-574
▁somet	-575
▁main	-576
▁Can	-577
rive	-578
▁but	-579
▁pre	-580
▁bus	-581
▁beaucoup	-582
él	-583
ree	-584
ish	-585
orm	-586
▁fau	-587
▁Is	-588
ond	-589
▁mu	-590
être	-591
▁if	-592
▁avez	-593
▁avons	-594
ées	-595
lement	-596
sez	-597
▁let	-598
oit	-599
▁tous	-600
ound	-601
Est	-602
▁pren	-603
onn	-604
▁sommes	-605
ud	-606
bre	-607
▁bl	-608
▁home	-609
▁ask	-610
▁wr	-611
▁sem	-612
▁aller	-613
▁something	-614
▁dr	-615
ange	-616
▁parler	-617
ab	-618
▁much	-619
▁pla	-620
▁quest	-621
▁jus	-622
▁sp	-623
▁ont	-624
▁fer	-625
▁eat	-626
iss	-627
▁spe	-628
Comment	-629
▁mat	-630
▁fat	-631
▁mal	-632
▁say	-633
ême	-634
▁friend	-635
▁grand	-636
▁J	-637
▁pos	-638
ole	-639
▁comm	-640
▁peut	-641
▁Let	-642
▁take	-643
Ça	-644
▁happen	-645
▁là	-646
▁read	-647
▁right	-648
▁exp	-649
aiss	-650
um	-651
▁enc	-652
▁maison	-653
ey	-654
On	-655
▁heure	-656
▁af	-657
▁bu	-658
aime	-659
était	-660
▁how	-661
▁lit	-662
ies	-663
▁tom	-664
▁make	-665
jours	-666
▁toujours	-667
▁trop	-668
ants	-669
▁rien	-670
ody	-671
ique	-672
▁G	-673
rait	-674
▁jour	-675
ge	-676
ick	-677
▁ven	-678
ars	-679
▁va	-680
▁éc	-681
▁Did	-682
▁deux	-683
▁feel	-684
▁voir	-685
ting	-686
▁pré	-687
▁ou	-688
▁book	-689
▁nouve	-690
▁money	-691
▁pouv	-692
ds	-693
self	-694
▁thought	-695
oire	-696
ert	-697
▁mes	-698
▁pri	-699
vez	-700
▁when	-701
▁back	-702
ile	-703
▁encore	-704
▁they	-705
▁bet	-706
ils	-707
▁last	-708
▁acc	-709
▁monde	-710
▁she	-711
▁voit	-712
▁bon	-713
ieux	-714
▁quoi	-715
▁sure	-716
▁ro	-717
▁who	-718
fe	-719
ool	-720
▁pi	-721
▁ans	-722
▁reg	-723
▁supp	-724
▁bel	-725
▁lot	-726
▁ret	-727
▁enf	-728
▁anything	-729
▁new	-730
iens	-731
▁told	-732
▁vais	-733
ussi	-734
ôt	-735
Tout	-736
ild	-737
▁day	-738
▁comme	-739
▁love	-740
▁ph	-741
▁int	-742
ence	-743
jour	-744
▁ai	-745
ried	-746
aine	-747
ern	-748
▁quelqu	-749
▁thing	-750
pt	-751
▁déc	-752
▁avoir	-753
▁or	-754
ough	-755
▁fais	-756
Quel	-757
row	-758
oston	-759
▁Boston	-760
▁pa	-761
▁und	-762
▁faut	-763
ra	-764
Mon	-765
ople	-766
ning	-767
étais	-768
▁again	-769
▁doesn	-770
ouse	-771
▁dois	-772
▁voiture	-773
▁soit	-774
du	-775
▁di	-776
gl	-777
▁wat	-778
ach	-779
ures	-780
▁must	-781
oth	-782
▁gu	-783
ted	-784
▁Where	-785
aimer	-786
▁Please	-787
▁cons	-788
Elles	-789
▁conn	-790
lez	-791
▁vie	-792
riez	-793
tenant	-794
▁fois	-795
▁made	-796
ident	-797
bien	-798
argent	-799
avez	-800
hui	-801
▁way	-802
▁travail	-803
▁old	-804
▁ke	-805
▁rép	-806
riv	-807
ame	-808
own	-809
▁said	-810
ieve	-811
▁mo	-812
aimerais	-813
ese	-814
▁speak	-815
jourd	-816
▁If	-817
▁O	-818
▁vu	-819
▁ye	-820
tle	-821
▁pet	-822
éri	-823
▁min	-824
▁eu	-825
▁dés	-826
▁avait	-827
▁sou	-828
Où	-829
▁vis	-830
aient	-831
▁aussi	-832
▁Who	-833
endre	-834
▁still	-835
▁pu	-836
ème	-837
▁people	-838
▁ple	-839
▁today	-840
ouvez	-841
ît	-842
▁care	-843
né	-844
▁fran	-845
▁won	-846
▁nom	-847
ake	-848
▁pris	-849
ante	-850
▁maintenant	-851
▁went	-852
▁fam	-853
act	-854
▁call	-855
▁probl	-856
▁ses	-857
▁jou	-858
ways	-859
▁pol	-860
orrow	-861
▁doing	-862
▁house	-863
▁better	-864
▁où	-865
▁sû	-866
▁happy	-867
çais	-868
rents	-869
▁sm	-870
▁believe	-871
rench	-872
▁cour	-873
▁always	-874
▁rec	-875
▁plan	-876
ek	-877
body	-878
▁French	-879
ié	-880
vers	-881
▁stay	-882
▁only	-883
▁mom	-884
▁ceci	-885
▁juste	-886
Si	-887
▁dern	-888
▁français	-889
▁sent	-890
▁tw	-891
▁ten	-892
red	-893
▁night	-894
▁room	-895
▁play	-896
▁personne	-897
ope	-898
▁them	-899
▁prom	-900
▁week	-901
ré	-902
fore	-903
▁seul	-904
▁aujourd	-905
▁No	-906
▁prop	-907
essay	-908
ty	-909
▁job	-910
▁sec	-911
▁aw	-912
▁rest	-913
erst	-914
▁chez	-915
▁wait	-916
▁before	-917
ccup	-918
▁ter	-919
chool	-920
ouver	-921
As	-922
ft	-923
▁ac	-924
▁hard	-925
▁même	-926
▁Have	-927
▁over	-928
élé	-929
▁rep	-930
▁met	-931
▁parents	-932
mber	-933
▁veu	-934
▁porte	-935
▁id	-936
▁pay	-937
▁many	-938
▁try	-939
▁down	-940
▁fl	-941
▁op	-942
▁question	-943
▁simp	-944
iqu	-945
▁inv	-946
▁moment	-947
▁livre	-948
▁fu	-949
▁little	-950
▁our	-951
▁school	-952
▁give	-953
▁child	-954
▁isn	-955
Qui	-956
▁déj	-957
▁pensais	-958
itu	-959
▁déjà	-960
anc	-961
née	-962
rit	-963
blem	-964
Un	-965
iz	-966
min	-967
ester	-968
▁regard	-969
▁problem	-970
hed	-971
près	-972
▁hand	-973
att	-974
▁underst	-975
▁télé	-976
▁souv	-977
▁leave	-978
ph	-979
asse	-980
▁Every	-981
▁wanted	-982
▁prendre	-983
get	-984
▁sort	-985
avais	-986
endu	-987
▁gl	-988
kes	-989
▁hier	-990
▁ache	-991
ention	-992
og	-993
▁père	-994
▁im	-995
eau	-996
Avez	-997
▁mieux	-998
ction	-999
urn	-1000
▁assez	-1001
▁dog	-1002
▁where	-1003
ired	-1004
▁disc	-1005
ful	-1006
▁soir	-1007
▁bonne	-1008
reat	-1009
▁emp	-1010
▁after	-1011
▁well	-1012
esterday	-1013
▁dét	-1014
ity	-1015
▁compren	-1016
Pers	-1017
▁left	-1018
▁laiss	-1019
Personne	-1020
leep	-1021
omme	-1022
▁trois	-1023
nous	-1024
▁bec	-1025
▁conf	-1026
acc	-1027
▁surpr	-1028
▁understand	-1029
enc	-1030
ret	-1031
▁alone	-1032
ider	-1033
▁tomorrow	-1034
autre	-1035
ex	-1036
ture	-1037
ents	-1038
▁sc	-1039
rê	-1040
▁happened	-1041
▁father	-1042
▁find	-1043
▁live	-1044
Es	-1045
uss	-1046
eurs	-1047
▁problème	-1048
Êtes	-1049
th	-1050
auv	-1051
pect	-1052
▁arriv	-1053
▁quand	-1054
▁demain	-1055
▁mus	-1056
oses	-1057
▁buy	-1058
▁enough	-1059
▁devrais	-1060
xt	-1061
▁seem	-1062
▁rem	-1063
▁autre	-1064
▁toutes	-1065
▁manger	-1066
▁sw	-1067
▁sans	-1068
▁three	-1069
▁yesterday	-1070
oint	-1071
▁inte	-1072
▁dû	-1073
▁put	-1074
ult	-1075
▁Jap	-1076
▁dep	-1077
▁disp	-1078
▁meet	-1079
Combien	-1080
esp	-1081
▁done	-1082
▁asked	-1083
▁avant	-1084
▁mor	-1085
oc	-1086
Cette	-1087
king	-1088
éd	-1089
▁plaît	-1090
▁hur	-1091
▁end	-1092
▁drink	-1093
▁gens	-1094
▁savoir	-1095
ager	-1096
▁renc	-1097
▁import	-1098
▁When	-1099
▁env	-1100
▁two	-1101
read	-1102
▁saw	-1103
▁occup	-1104
▁friends	-1105
▁tea	-1106
▁into	-1107
aux	-1108
▁please	-1109
▁trouv	-1110
▁sens	-1111
▁fut	-1112
▁aim	-1113
▁ide	-1114
▁start	-1115
êtes	-1116
▁rais	-1117
ition	-1118
▁étud	-1119
▁ever	-1120
▁nuit	-1121
▁enfants	-1122
cle	-1123
erre	-1124
▁expl	-1125
▁everything	-1126
oute	-1127
▁aux	-1128
tement	-1129
sible	-1130
▁heures	-1131
▁partir	-1132
Cel	-1133
▁pres	-1134
ated	-1135
▁aut	-1136
▁elle	-1137
arie	-1138
▁place	-1139
ace	-1140
orry	-1141
▁ces	-1142
ail	-1143
▁toute	-1144
▁coup	-1145
▁inc	-1146
▁lis	-1147
▁why	-1148
Ma	-1149
ount	-1150
▁fo	-1151
▁cat	-1152
én	-1153
▁après	-1154
▁travaill	-1155
arrive	-1156
▁chien	-1157
▁essay	-1158
▁ass	-1159
▁next	-1160
arn	-1161
irst	-1162
▁comment	-1163
be	-1164
▁conc	-1165
wn	-1166
ffe	-1167
▁cha	-1168
▁hope	-1169
▁petit	-1170
ised	-1171
école	-1172
ets	-1173
▁hear	-1174
▁late	-1175
▁adv	-1176
ves	-1177
ank	-1178
▁simplement	-1179
▁gir	-1180
Cela	-1181
ente	-1182
▁dép	-1183
De	-1184
▁busy	-1185
▁auc	-1186
avant	-1187
▁1	-1188
ision	-1189
▁mont	-1190
▁ob	-1191
▁other	-1192
▁wrong	-1193
▁dec	-1194
▁ref	-1195
▁Would	-1196
▁table	-1197
▁bo	-1198
▁lun	-1199
▁away	-1200
▁cond	-1201
▁walk	-1202
▁voulais	-1203
int	-1204
▁kind	-1205
ute	-1206
▁tes	-1207
▁notre	-1208
▁sûr	-1209
▁choses	-1210
omp	-1211
▁door	-1212
▁fun	-1213
▁sleep	-1214
▁cher	-1215
▁pouvez	-1216
œur	-1217
En	-1218
réc	-1219
▁mère	-1220
▁dernière	-1221
▁fem	-1222
▁rester	-1223
▁quelques	-1224
▁passé	-1225
▁kne	-1226
▁viv	-1227
aisse	-1228
▁prof	-1229
▁point	-1230
▁idea	-1231
▁Marie	-1232
▁puis	-1233
▁reme	-1234
▁nothing	-1235
▁chance	-1236
▁show	-1237
▁first	-1238
llement	-1239
▁pourquoi	-1240
▁cham	-1241
▁mot	-1242
▁wasn	-1243
ather	-1244
rer	-1245
▁answ	-1246
▁veut	-1247
▁vol	-1248
temps	-1249
Puis	-1250
ends	-1251
trer	-1252
illes	-1253
jet	-1254
uses	-1255
▁vos	-1256
▁cert	-1257
gg	-1258
▁phot	-1259
▁matin	-1260
▁venir	-1261
▁St	-1262
▁sorry	-1263
ock	-1264
oud	-1265
▁gar	-1266
▁questions	-1267
▁cor	-1268
oss	-1269
▁may	-1270
ious	-1271
▁came	-1272
endant	-1273
▁jours	-1274
▁dur	-1275
ready	-1276
▁turn	-1277
▁already	-1278
▁heureux	-1279
▁remember	-1280
rez	-1281
ng	-1282
▁gave	-1283
▁rapp	-1284
▁years	-1285
▁nouveau	-1286
▁ear	-1287
▁pat	-1288
▁even	-1289
▁being	-1290
▁bed	-1291
▁prob	-1292
▁compl	-1293
Re	-1294
▁things	-1295
▁bad	-1296
▁yet	-1297
▁moin	-1298
▁dou	-1299
▁keep	-1300
▁police	-1301
▁idée	-1302
▁knew	-1303
aider	-1304
▁took	-1305
▁anyone	-1306
▁couldn	-1307
leur	-1308
▁big	-1309
▁used	-1310
▁mother	-1311
▁hab	-1312
ché	-1313
▁soon	-1314
ts	-1315
▁sait	-1316
▁ense	-1317
▁life	-1318
▁looking	-1319
▁morning	-1320
▁bou	-1321
▁name	-1322
ory	-1323
▁mind	-1324
▁exc	-1325
▁prê	-1326
▁without	-1327
imes	-1328
▁rend	-1329
utes	-1330
▁rain	-1331
▁stud	-1332
▁lu	-1333
▁watch	-1334
▁aff	-1335
▁pain	-1336
▁arrive	-1337
èrent	-1338
▁tired	-1339
icile	-1340
▁Your	-1341
▁désol	-1342
ister	-1343
▁peur	-1344
avoir	-1345
ats	-1346
▁tôt	-1347
▁En	-1348
▁important	-1349
▁open	-1350
ich	-1351
igh	-1352
▁vi	-1353
aurais	-1354
▁croire	-1355
▁cle	-1356
▁fac	-1357
espère	-1358
▁interes	-1359
▁mauv	-1360
les	-1361
▁best	-1362
▁mauvais	-1363
▁semble	-1364
ict	-1365
par	-1366
ris	-1367
▁trouver	-1368
▁prem	-1369
▁found	-1370
▁str	-1371
▁heard	-1372
igu	-1373
▁His	-1374
Quand	-1375
phone	-1376
▁seen	-1377
lé	-1378
▁mist	-1379
▁voulez	-1380
▁teacher	-1381
▁Ch	-1382
▁fort	-1383
▁meill	-1384
▁semaine	-1385
▁lost	-1386
▁préf	-1387
▁difficile	-1388
▁minutes	-1389
qui	-1390
bles	-1391
▁rendre	-1392
ale	-1393
ily	-1394
▁cou	-1395
▁gard	-1396
▁lang	-1397
▁prés	-1398
▁conse	-1399
▁demandé	-1400
▁often	-1401
▁seule	-1402
▁children	-1403
▁their	-1404
▁rés	-1405
▁cet	-1406
▁use	-1407
▁lors	-1408
▁same	-1409
Quelle	-1410
▁boy	-1411
▁voy	-1412
▁accident	-1413
çon	-1414
▁non	-1415
▁po	-1416
▁parle	-1417
yez	-1418
▁aider	-1419
▁haven	-1420
angé	-1421
▁tra	-1422
▁ready	-1423
▁raison	-1424
▁entendu	-1425
uire	-1426
roit	-1427
▁fille	-1428
ache	-1429
raid	-1430
▁ins	-1431
▁these	-1432
jeun	-1433
▁May	-1434
▁miss	-1435
▁wish	-1436
este	-1437
uter	-1438
▁cap	-1439
▁Engl	-1440
▁quit	-1441
elles	-1442
▁el	-1443
▁water	-1444
▁answer	-1445
▁chambre	-1446
▁ann	-1447
▁depuis	-1448
▁souvent	-1449
▁fatigu	-1450
▁change	-1451
▁savais	-1452
▁piè	-1453
▁afraid	-1454
ell	-1455
▁All	-1456
ins	-1457
▁proch	-1458
az	-1459
▁sat	-1460
ote	-1461
▁study	-1462
▁propos	-1463
▁répon	-1464
mble	-1465
▁Could	-1466
▁tomb	-1467
▁diffic	-1468
vent	-1469
▁mé	-1470
▁sol	-1471
▁doct	-1472
▁else	-1473
river	-1474
▁inté	-1475
▁sing	-1476
▁stup	-1477
▁young	-1478
▁pendant	-1479
▁ord	-1480
▁stop	-1481
▁contr	-1482
ared	-1483
▁amis	-1484
▁yourself	-1485
▁eas	-1486
▁femme	-1487
rap	-1488
▁beg	-1489
▁col	-1490
▁person	-1491
ince	-1492
rions	-1493
▁homme	-1494
▁possible	-1495
▁crois	-1496
orter	-1497
gry	-1498
ife	-1499
▁inf	-1500
▁prie	-1501
▁longtemps	-1502
▁ami	-1503
▁tard	-1504
▁Japan	-1505
▁quelle	-1506
ég	-1507
aller	-1508
▁cold	-1509
▁rev	-1510
ished	-1511
▁conv	-1512
▁fai	-1513
▁nu	-1514
▁secret	-1515
▁English	-1516
idé	-1517
osed	-1518
▁jusqu	-1519
▁party	-1520
▁run	-1521
▁mis	-1522
▁vér	-1523
▁arrê	-1524
▁dorm	-1525
aissez	-1526
▁fil	-1527
▁retard	-1528
▁mort	-1529
▁great	-1530
cept	-1531
ations	-1532
ignore	-1533
▁learn	-1534
▁myself	-1535
▁K	-1536
erai	-1537
▁pret	-1538
heure	-1539
▁arrivé	-1540
ip	-1541
ied	-1542
▁commenc	-1543
ches	-1544
ital	-1545
▁choi	-1546
▁visit	-1547
▁few	-1548
iste	-1549
▁cam	-1550
▁sera	-1551
▁fi	-1552
▁bro	-1553
▁acheté	-1554
▁girl	-1555
▁passe	-1556
▁abs	-1557
rass	-1558
▁nombre	-1559
oke	-1560
▁glad	-1561
erreur	-1562
▁bought	-1563
▁talking	-1564
▁sho	-1565
▁matter	-1566
▁sk	-1567
jeuner	-1568
alement	-1569
▁swim	-1570
onnes	-1571
▁lettre	-1572
ork	-1573
reak	-1574
▁mov	-1575
ages	-1576
led	-1577
per	-1578
fait	-1579
▁bless	-1580
▁wants	-1581
▁intéress	-1582
▁Be	-1583
▁imm	-1584
tr	-1585
▁gag	-1586
▁while	-1587
ater	-1588
ienne	-1589
▁fête	-1590
▁around	-1591
▁letter	-1592
▁lire	-1593
▁trouvé	-1594
erve	-1595
▁mag	-1596
▁perdu	-1597
ys	-1598
ues	-1599
ause	-1600
ères	-1601
arm	-1602
llez	-1603
aires	-1604
▁voud	-1605
ustr	-1606
▁pic	-1607
▁tri	-1608
▁count	-1609
▁early	-1610
▁might	-1611
▁moins	-1612
▁getting	-1613
▁able	-1614
▁nice	-1615
ug	-1616
▁sœur	-1617
ience	-1618
▁food	-1619
▁leur	-1620
ath	-1621
tif	-1622
ites	-1623
▁caf	-1624
▁gen	-1625
▁true	-1626
▁jouer	-1627
▁pouvons	-1628
▁dont	-1629
▁perm	-1630
▁hot	-1631
▁ép	-1632
▁devons	-1633
▁demande	-1634
▁pourrait	-1635
ains	-1636
accord	-1637
onder	-1638
▁rencont	-1639
rant	-1640
▁deven	-1641
▁knows	-1642
▁pièce	-1643
▁sortir	-1644
ces	-1645
oid	-1646
inner	-1647
▁sister	-1648
▁married	-1649
▁travailler	-1650
illez	-1651
Une	-1652
▁year	-1653
util	-1654
ia	-1655
▁looks	-1656
▁another	-1657
▁étaient	-1658
erci	-1659
most	-1660
▁sign	-1661
▁vois	-1662
▁expect	-1663
▁appel	-1664
▁break	-1665
▁wonder	-1666
▁eff	-1667
▁sal	-1668
▁tried	-1669
any	-1670
more	-1671
ream	-1672
▁danger	-1673
vé	-1674
uth	-1675
ments	-1676
Au	-1677
▁nour	-1678
▁In	-1679
▁mari	-1680
00	-1681
▁ment	-1682
▁aren	-1683
▁hurt	-1684
▁sois	-1685
▁nouvelle	-1686
entre	-1687
▁doit	-1688
▁sujet	-1689
ible	-1690
tiful	-1691
▁emb	-1692
▁frère	-1693
▁ville	-1694
▁brother	-1695
▁meeting	-1696
▁gros	-1697
▁such	-1698
▁wind	-1699
▁anymore	-1700
▁forg	-1701
▁donner	-1702
▁listen	-1703
isé	-1704
ize	-1705
▁To	-1706
▁téléphone	-1707
aie	-1708
▁hun	-1709
▁Some	-1710
▁café	-1711
▁invit	-1712
▁passer	-1713
▁devriez	-1714
▁act	-1715
ivers	-1716
▁vérité	-1717
▁wouldn	-1718
▁beautiful	-1719
▁own	-1720
joy	-1721
▁sau	-1722
▁erreur	-1723
toi	-1724
▁resp	-1725
▁truth	-1726
▁allé	-1727
▁doll	-1728
ved	-1729
▁journée	-1730
pital	-1731
▁â	-1732
▁days	-1733
▁grande	-1734
▁pap	-1735
▁presque	-1736
iser	-1737
▁because	-1738
avons	-1739
▁chant	-1740
di	-1741
hab	-1742
▁oubl	-1743
▁mean	-1744
avantage	-1745
nis	-1746
ffee	-1747
▁retour	-1748
▁situ	-1749
▁difficult	-1750
▁aime	-1751
▁ey	-1752
▁film	-1753
▁photo	-1754
▁faites	-1755
▁tour	-1756
▁trouve	-1757
▁attention	-1758
ustral	-1759
▁davantage	-1760
appréc	-1761
▁pensé	-1762
▁suppose	-1763
ken	-1764
▁dir	-1765
▁coffee	-1766
▁coming	-1767
▁contin	-1768
▁profess	-1769
▁mine	-1770
▁tennis	-1771
▁famille	-1772
▁station	-1773
▁far	-1774
Son	-1775
iment	-1776
▁Tell	-1777
rendre	-1778
▁enjoy	-1779
▁inter	-1780
▁soyez	-1781
▁almost	-1782
rête	-1783
▁jeune	-1784
▁déb	-1785
▁diffé	-1786
▁dinner	-1787
▁partie	-1788
ny	-1789
▁bure	-1790
▁rel	-1791
▁fall	-1792
llow	-1793
▁kid	-1794
▁empl	-1795
▁arg	-1796
Pouvez	-1797
▁Everyone	-1798
teau	-1799
▁entre	-1800
▁bureau	-1801
▁connais	-1802
▁once	-1803
▁diffe	-1804
▁doctor	-1805
▁waiting	-1806
avor	-1807
même	-1808
olog	-1809
▁chau	-1810
gether	-1811
▁books	-1812
▁devoir	-1813
adi	-1814
▁dress	-1815
▁family	-1816
Ar	-1817
▁prod	-1818
▁restau	-1819
▁certain	-1820
▁shouldn	-1821
era	-1822
là	-1823
lui	-1824
used	-1825
▁win	-1826
▁tonight	-1827
ark	-1828
omm	-1829
▁cri	-1830
▁news	-1831
iction	-1832
▁devez	-1833
▁careful	-1834
▁together	-1835
iate	-1836
▁bit	-1837
▁livres	-1838
▁petite	-1839
oon	-1840
▁hate	-1841
▁donné	-1842
▁gent	-1843
▁favor	-1844
▁write	-1845
▁voulait	-1846
▁R	-1847
icy	-1848
inc	-1849
arge	-1850
iers	-1851
▁cuis	-1852
aught	-1853
Peux	-1854
ving	-1855
cin	-1856
emp	-1857
▁sugg	-1858
▁étiez	-1859
▁aucune	-1860
▁termin	-1861
elt	-1862
▁ap	-1863
▁nat	-1864
▁cook	-1865
▁trying	-1866
▁someone	-1867
▁tellement	-1868
ances	-1869
▁kill	-1870
ression	-1871
▁combien	-1872
▁chat	-1873
▁song	-1874
▁working	-1875
rire	-1876
▁felt	-1877
▁each	-1878
▁likes	-1879
▁satis	-1880
▁forget	-1881
pped	-1882
▁cop	-1883
▁aide	-1884
▁attend	-1885
▁ris	-1886
reux	-1887
▁port	-1888
▁seems	-1889
we	-1890
aut	-1891
oyez	-1892
ying	-1893
▁cal	-1894
rence	-1895
▁mess	-1896
▁pouvoir	-1897
▁situation	-1898
pl	-1899
▁feu	-1900
▁hor	-1901
▁both	-1902
▁real	-1903
▁venu	-1904
aide	-1905
▁voi	-1906
▁phone	-1907
▁world	-1908
▁longer	-1909
▁bir	-1910
▁désolé	-1911
▁fini	-1912
▁occupé	-1913
nes	-1914
uie	-1915
onque	-1916
▁easy	-1917
▁exam	-1918
▁réun	-1919
▁trust	-1920
▁enfant	-1921
▁Ne	-1922
hait	-1923
▁vac	-1924
▁sl	-1925
▁sit	-1926
▁six	-1927
▁pretty	-1928
▁déjeuner	-1929
ép	-1930
Veu	-1931
▁word	-1932
▁étais	-1933
▁minute	-1934
▁prend	-1935
▁étudi	-1936
Peu	-1937
▁cin	-1938
▁trou	-1939
▁light	-1940
▁présent	-1941
▁restaurant	-1942
▁Get	-1943
▁suff	-1944
Veuillez	-1945
▁beh	-1946
▁sick	-1947
ball	-1948
▁Will	-1949
▁sound	-1950
Dis	-1951
▁bri	-1952
▁died	-1953
▁nager	-1954
illé	-1955
▁dix	-1956
itude	-1957
idi	-1958
▁bag	-1959
ually	-1960
▁sous	-1961
▁rencon	-1962
qué	-1963
ateur	-1964
▁prêt	-1965
▁probable	-1966
ger	-1967
▁Take	-1968
▁started	-1969
▁ty	-1970
riture	-1971
▁exact	-1972
▁mangé	-1973
uv	-1974
til	-1975
adore	-1976
▁high	-1977
▁wife	-1978
▁demander	-1979
▁vas	-1980
▁temp	-1981
Quelqu	-1982
▁viens	-1983
éré	-1984
▁Sh	-1985
▁Give	-1986
▁confi	-1987
▁envie	-1988
▁devrait	-1989
▁dollars	-1990
été	-1991
▁air	-1992
▁util	-1993
▁aucun	-1994
▁souhait	-1995
aise	-1996
▁tête	-1997
▁Thank	-1998
▁stand	-1999
▁chaque	-2000
▁heureuse	-2001
son	-2002
▁Je	-2003
▁face	-2004
▁gone	-2005
▁suiv	-2006
▁class	-2007
▁finished	-2008
▁Does	-2009
▁amus	-2010
▁mois	-2011
▁reste	-2012
▁réunion	-2013
oman	-2014
▁window	-2015
ume	-2016
▁vite	-2017
▁wear	-2018
▁writ	-2019
▁vivre	-2020
▁inform	-2021
▁serait	-2022
▁seulement	-2023
▁surprised	-2024
urer	-2025
▁spend	-2026
ommes	-2027
▁bicy	-2028
▁inst	-2029
▁most	-2030
▁vieux	-2031
▁diction	-2032
▁lorsque	-2033
Vou	-2034
▁dî	-2035
▁étr	-2036
iques	-2037
▁gare	-2038
▁imag	-2039
▁malade	-2040
▁personnes	-2041
▁dém	-2042
Merci	-2043
▁méde	-2044
▁those	-2045
▁colère	-2046
▁comprendre	-2047
Pren	-2048
Veux	-2049
▁Austral	-2050
ason	-2051
▁luck	-2052
▁succ	-2053
Voulez	-2054
▁stupid	-2055
▁acheter	-2056
▁pourrais	-2057
▁comprends	-2058
ided	-2059
▁fils	-2060
▁devrions	-2061
rir	-2062
▁drive	-2063
▁ferais	-2064
gard	-2065
▁dér	-2066
▁serv	-2067
▁ensemble	-2068
▁sûre	-2069
▁looked	-2070
▁bi	-2071
▁fig	-2072
▁rap	-2073
▁pian	-2074
▁bicycle	-2075
▁respons	-2076
▁hist	-2077
▁sour	-2078
▁stre	-2079
▁facile	-2080
▁nourriture	-2081
▁serai	-2082
▁follow	-2083
▁forgot	-2084
▁mistake	-2085
▁voudrais	-2086
▁Go	-2087
▁quite	-2088
▁fatigué	-2089
▁meilleur	-2090
▁men	-2091
▁pays	-2092
▁lunch	-2093
▁garçon	-2094
▁reconn	-2095
vel	-2096
ject	-2097
▁vit	-2098
▁Stop	-2099
▁Japon	-2100
▁music	-2101
▁déteste	-2102
ever	-2103
▁conduire	-2104
Fais	-2105
Donne	-2106
where	-2107
▁exac	-2108
▁yeux	-2109
▁month	-2110
Ces	-2111
▁ain	-2112
▁bor	-2113
▁mil	-2114
Arrête	-2115
▁froid	-2116
Sa	-2117
▁ir	-2118
iness	-2119
▁près	-2120
▁publ	-2121
▁cours	-2122
ured	-2123
▁vue	-2124
▁laisser	-2125
tur	-2126
▁thé	-2127
ib	-2128
▁near	-2129
▁mettre	-2130
▁office	-2131
▁prison	-2132
▁réponse	-2133
▁Nob	-2134
▁fire	-2135
vision	-2136
▁movie	-2137
▁cô	-2138
▁tax	-2139
▁journ	-2140
▁until	-2141
▁manière	-2142
old	-2143
▁compte	-2144
çu	-2145
▁fen	-2146
▁rou	-2147
▁prud	-2148
▁oublié	-2149
▁fenêtre	-2150
▁weather	-2151
▁art	-2152
▁story	-2153
▁Nobody	-2154
▁serais	-2155
▁hair	-2156
▁boire	-2157
▁plais	-2158
▁écrit	-2159
ked	-2160
▁chang	-2161
▁makes	-2162
▁regarder	-2163
ler	-2164
▁adm	-2165
ating	-2166
▁Come	-2167
▁comple	-2168
▁laissé	-2169
▁ind	-2170
▁four	-2171
▁under	-2172
▁everyone	-2173
▁supposed	-2174
ky	-2175
ige	-2176
▁fit	-2177
ientôt	-2178
▁contre	-2179
▁rê	-2180
▁coû	-2181
▁suc	-2182
▁eyes	-2183
▁worry	-2184
▁chemin	-2185
▁dispos	-2186
mé	-2187
▁amie	-2188
▁anim	-2189
▁since	-2190
▁autant	-2191
▁TV	-2192
▁dream	-2193
▁regret	-2194
▁premier	-2195
▁confiance	-2196
em	-2197
ète	-2198
ission	-2199
▁belle	-2200
▁rapide	-2201
▁travaille	-2202
ras	-2203
ably	-2204
ates	-2205
work	-2206
▁ago	-2207
▁séri	-2208
▁celui	-2209
▁hours	-2210
▁yours	-2211
▁essayé	-2212
iner	-2213
▁ainsi	-2214
▁anybody	-2215
▁serious	-2216
▁travers	-2217
lot	-2218
élo	-2219
▁ru	-2220
ward	-2221
▁add	-2222
▁rob	-2223
▁fast	-2224
▁head	-2225
▁connaiss	-2226
man	-2227
▁As	-2228
▁surv	-2229
Laisse	-2230
attend	-2231
▁angry	-2232
▁small	-2233
▁autres	-2234
▁exactement	-2235
oubl	-2236
oyer	-2237
▁prév	-2238
▁piano	-2239
▁reading	-2240
▁agree	-2241
▁guess	-2242
▁times	-2243
▁dormir	-2244
▁surpris	-2245
▁sy	-2246
iend	-2247
▁broke	-2248
▁bientôt	-2249
▁dernier	-2250
ande	-2251
▁sil	-2252
rière	-2253
▁opin	-2254
na	-2255
ghter	-2256
▁parlé	-2257
▁tant	-2258
▁tick	-2259
▁terri	-2260
▁voyage	-2261
▁arriver	-2262
als	-2263
▁hum	-2264
▁having	-2265
▁exactly	-2266
cer	-2267
▁tru	-2268
▁Just	-2269
▁prix	-2270
▁conna	-2271
▁trans	-2272
▁discuss	-2273
▁fa	-2274
▁côté	-2275
▁advice	-2276
▁content	-2277
▁endroit	-2278
▁himself	-2279
▁picture	-2280
agne	-2281
anche	-2282
▁fell	-2283
▁vélo	-2284
▁playing	-2285
urg	-2286
▁tor	-2287
▁kiss	-2288
▁radi	-2289
▁vient	-2290
▁continu	-2291
▁usually	-2292
▁attendre	-2293
eure	-2294
noon	-2295
vert	-2296
▁Our	-2297
▁close	-2298
▁called	-2299
▁chauss	-2300
▁trouble	-2301
ett	-2302
arrê	-2303
▁fon	-2304
▁hon	-2305
midi	-2306
▁dess	-2307
▁parti	-2308
▁caught	-2309
▁feeling	-2310
▁musique	-2311
▁médecin	-2312
▁afternoon	-2313
ical	-2314
▁nos	-2315
▁says	-2316
▁lives	-2317
▁reason	-2318
▁réf	-2319
▁actu	-2320
▁alors	-2321
▁dîner	-2322
▁boulot	-2323
▁decided	-2324
▁pouvais	-2325
▁students	-2326
cu	-2327
ced	-2328
less	-2329
▁cas	-2330
▁pied	-2331
▁montre	-2332
▁turned	-2333
▁explain	-2334
▁probablement	-2335
▁pop	-2336
▁plut	-2337
▁safe	-2338
Regard	-2339
amment	-2340
▁chans	-2341
▁corre	-2342
iconque	-2343
▁country	-2344
oig	-2345
alth	-2346
anté	-2347
▁fou	-2348
▁ran	-2349
iquer	-2350
▁guit	-2351
▁clean	-2352
▁hands	-2353
▁verre	-2354
▁prochaine	-2355
ettes	-2356
▁bois	-2357
▁free	-2358
▁penser	-2359
apprécie	-2360
▁interested	-2361
Par	-2362
arer	-2363
▁ste	-2364
▁sus	-2365
écess	-2366
▁cause	-2367
▁colle	-2368
▁genre	-2369
▁mange	-2370
ze	-2371
ables	-2372
▁mour	-2373
▁eating	-2374
▁lieu	-2375
▁loin	-2376
▁allow	-2377
▁appre	-2378
▁plait	-2379
▁teach	-2380
▁weren	-2381
uy	-2382
▁gén	-2383
▁probably	-2384
▁professeur	-2385
port	-2386
▁âge	-2387
iller	-2388
▁cheve	-2389
Peut	-2390
side	-2391
▁bat	-2392
▁dau	-2393
ution	-2394
▁join	-2395
▁pois	-2396
▁vers	-2397
▁habit	-2398
▁proud	-2399
▁accept	-2400
▁interesting	-2401
Tous	-2402
lais	-2403
▁lib	-2404
asses	-2405
ettre	-2406
▁appreci	-2407
Mes	-2408
icul	-2409
▁red	-2410
meric	-2411
others	-2412
▁arrived	-2413
▁cheveux	-2414
▁patient	-2415
hô	-2416
umé	-2417
▁gâ	-2418
▁arm	-2419
▁ban	-2420
rente	-2421
eler	-2422
▁val	-2423
▁foot	-2424
▁nécess	-2425
▁puisse	-2426
▁journal	-2427
akes	-2428
▁Her	-2429
▁box	-2430
▁fix	-2431
▁idi	-2432
▁town	-2433
▁radio	-2434
▁Americ	-2435
▁penses	-2436
▁Everybody	-2437
hors	-2438
inté	-2439
▁number	-2440
▁plutôt	-2441
▁première	-2442
▁sac	-2443
▁thr	-2444
▁dead	-2445
▁sembl	-2446
▁disapp	-2447
▁concert	-2448
▁thinking	-2449
orth	-2450
enses	-2451
resse	-2452
▁cost	-2453
▁super	-2454
▁different	-2455
▁esc	-2456
▁game	-2457
▁langu	-2458
anglais	-2459
usement	-2460
▁appréc	-2461
▁dehors	-2462
0.	-2463
venu	-2464
èmes	-2465
▁tre	-2466
▁chanter	-2467
ial	-2468
lect	-2469
avait	-2470
▁bill	-2471
arrass	-2472
▁opinion	-2473
ron	-2474
▁Mon	-2475
aines	-2476
ignor	-2477
▁snow	-2478
Laissez	-2479
▁surprise	-2480
ître	-2481
▁law	-2482
▁dist	-2483
▁leav	-2484
▁appris	-2485
gr	-2486
kyo	-2487
▁thir	-2488
▁catch	-2489
▁produit	-2490
uf	-2491
enir	-2492
ered	-2493
fect	-2494
ises	-2495
▁payer	-2496
paravant	-2497
▁through	-2498
▁bé	-2499
blig	-2500
ized	-2501
nent	-2502
▁bab	-2503
▁sum	-2504
▁faim	-2505
▁Which	-2506
▁popul	-2507
▁fonction	-2508
▁homework	-2509
lly	-2510
▁éch	-2511
Votre	-2512
homme	-2513
▁Look	-2514
▁choix	-2515
▁later	-2516
▁leurs	-2517
▁décidé	-2518
▁esp	-2519
▁joue	-2520
▁tele	-2521
▁These	-2522
▁quick	-2523
▁argent	-2524
▁daughter	-2525
eep	-2526
llig	-2527
▁age	-2528
▁advised	-2529
▁message	-2530
▁parfait	-2531
▁Japanese	-2532
cep	-2533
urité	-2534
▁essayer	-2535
▁auparavant	-2536
▁Not	-2537
▁bar	-2538
▁ouv	-2539
êcher	-2540
▁Tokyo	-2541
▁imméd	-2542
importe	-2543
▁favorite	-2544
Ess	-2545
▁bas	-2546
▁sold	-2547
▁allons	-2548
ched	-2549
▁vin	-2550
▁trip	-2551
▁changer	-2552
▁peuvent	-2553
▁entendre	-2554
▁appreciate	-2555
▁park	-2556
dd	-2557
▁Fr	-2558
ther	-2559
glais	-2560
▁chaud	-2561
App	-2562
▁pun	-2563
oking	-2564
tenir	-2565
▁réve	-2566
▁type	-2567
▁impos	-2568
▁rencontrer	-2569
ctu	-2570
▁del	-2571
▁sun	-2572
▁Keep	-2573
▁dites	-2574
▁against	-2575
▁discuter	-2576
▁hos	-2577
▁séc	-2578
▁rich	-2579
▁outside	-2580
▁suggest	-2581
▁immédiate	-2582
tt	-2583
not	-2584
▁sé	-2585
▁sto	-2586
▁trait	-2587
▁viend	-2588
▁finish	-2589
▁living	-2590
▁saying	-2591
Pourriez	-2592
▁intellig	-2593
igne	-2594
▁sub	-2595
ither	-2596
▁apprendre	-2597
▁problèmes	-2598
▁grow	-2599
▁then	-2600
▁marcher	-2601
bé	-2602
cs	-2603
▁bout	-2604
▁large	-2605
▁devoirs	-2606
▁désolée	-2607
▁histoire	-2608
oh	-2609
▁ég	-2610
▁div	-2611
▁needs	-2612
▁pouvait	-2613
▁business	-2614
▁computer	-2615
▁prochain	-2616
▁nouvelles	-2617
▁rac	-2618
alent	-2619
▁kept	-2620
▁tent	-2621
▁become	-2622
▁commence	-2623
▁immédiatement	-2624
apon	-2625
cess	-2626
▁mach	-2627
▁tree	-2628
ensive	-2629
▁touch	-2630
▁pensez	-2631
▁convain	-2632
▁hospital	-2633
ém	-2634
let	-2635
▁dro	-2636
▁lau	-2637
▁lie	-2638
▁wine	-2639
▁attrap	-2640
ôle	-2641
omet	-2642
ower	-2643
çons	-2644
▁préc	-2645
▁suit	-2646
▁oblig	-2647
▁trave	-2648
lfriend	-2649
▁hungry	-2650
▁strong	-2651
▁taking	-2652
▁visite	-2653
unk	-2654
aille	-2655
▁shoes	-2656
▁short	-2657
▁Monday	-2658
▁second	-2659
tez	-2660
▁cu	-2661
▁vont	-2662
ressed	-2663
Pourrais	-2664
▁répondre	-2665
▁impossible	-2666
ric	-2667
Notre	-2668
▁perdre	-2669
▁promise	-2670
▁girlfriend	-2671
▁OK	-2672
▁gre	-2673
▁born	-2674
▁behind	-2675
▁health	-2676
▁rencontré	-2677
▁œ	-2678
▁cut	-2679
▁cass	-2680
▁cloth	-2681
ication	-2682
ève	-2683
user	-2684
▁cent	-2685
▁fore	-2686
▁build	-2687
▁ordin	-2688
▁imagin	-2689
▁making	-2690
▁suffis	-2691
▁étions	-2692
▁anglais	-2693
▁occupée	-2694
gan	-2695
▁moy	-2696
venir	-2697
▁team	-2698
▁check	-2699
▁peine	-2700
▁sécurité	-2701
cl	-2702
rou	-2703
▁rè	-2704
▁boî	-2705
▁coin	-2706
▁older	-2707
▁parce	-2708
▁savez	-2709
▁enseign	-2710
zz	-2711
léch	-2712
▁war	-2713
▁baby	-2714
▁parc	-2715
▁begin	-2716
▁front	-2717
▁commencé	-2718
▁chaussures	-2719
▁nécessaire	-2720
usé	-2721
Voud	-2722
quipe	-2723
▁amou	-2724
▁public	-2725
ls	-2726
rons	-2727
▁die	-2728
▁guy	-2729
▁fier	-2730
▁pick	-2731
▁mains	-2732
▁savait	-2733
ray	-2734
▁Am	-2735
▁lum	-2736
▁base	-2737
▁lose	-2738
▁taxi	-2739
▁woman	-2740
ètement	-2741
▁gagner	-2742
▁complain	-2743
amed	-2744
mbre	-2745
cient	-2746
▁five	-2747
▁Maybe	-2748
▁birth	-2749
▁magas	-2750
▁choice	-2751
▁needed	-2752
▁summer	-2753
▁perfect	-2754
▁chercher	-2755
fer	-2756
enez	-2757
apeau	-2758
▁works	-2759
▁stayed	-2760
▁écrire	-2761
▁terminé	-2762
ât	-2763
fast	-2764
inst	-2765
▁swe	-2766
occup	-2767
rieur	-2768
▁cinq	-2769
▁paid	-2770
▁aband	-2771
▁allez	-2772
▁chois	-2773
▁laugh	-2774
▁apolog	-2775
▁revoir	-2776
aw	-2777
fois	-2778
irer	-2779
▁cade	-2780
▁eaten	-2781
▁dispose	-2782
▁der	-2783
▁full	-2784
▁save	-2785
▁riche	-2786
▁classe	-2787
▁langue	-2788
▁company	-2789
▁étudier	-2790
▁complètement	-2791
▁év	-2792
agit	-2793
airs	-2794
onde	-2795
▁santé	-2796
▁simple	-2797
▁capable	-2798
▁nombreux	-2799
Voi	-2800
rée	-2801
▁ate	-2802
▁opp	-2803
▁soi	-2804
▁date	-2805
▁prin	-2806
▁hurry	-2807
▁aurait	-2808
▁propre	-2809
▁tomber	-2810
▁rentrer	-2811
bas	-2812
quel	-2813
▁mur	-2814
Pense	-2815
▁écout	-2816
▁clothes	-2817
Ch	-2818
fu	-2819
▁hat	-2820
▁avais	-2821
▁machine	-2822
▁voulons	-2823
Att	-2824
étr	-2825
ines	-2826
▁med	-2827
antes	-2828
▁deal	-2829
▁ferai	-2830
▁blessé	-2831
▁chanson	-2832
▁certaine	-2833
▁complete	-2834
▁décision	-2835
▁breakfast	-2836
▁z	-2837
aig	-2838
lus	-2839
Sais	-2840
▁ils	-2841
▁pie	-2842
▁city	-2843
▁dark	-2844
▁fish	-2845
quelle	-2846
▁bruit	-2847
▁lundi	-2848
▁signif	-2849
▁student	-2850
oyé	-2851
▁ju	-2852
▁kn	-2853
▁dim	-2854
▁craz	-2855
▁pleuv	-2856
▁report	-2857
▁él	-2858
Fait	-2859
▁enn	-2860
▁hit	-2861
▁key	-2862
ortun	-2863
Penses	-2864
▁frapp	-2865
▁press	-2866
▁laisse	-2867
▁hour	-2868
▁test	-2869
▁idiot	-2870
▁sorte	-2871
▁emploi	-2872
▁devenir	-2873
▁derrière	-2874
▁particul	-2875
agé	-2876
ics	-2877
étud	-2878
▁Was	-2879
▁beer	-2880
▁cœur	-2881
▁rent	-2882
▁boîte	-2883
▁crazy	-2884
▁funny	-2885
▁quickly	-2886
▁impression	-2887
▁rapidement	-2888
li	-2889
ited	-2890
oser	-2891
▁ill	-2892
▁reçu	-2893
▁viol	-2894
▁bière	-2895
▁droit	-2896
▁fruit	-2897
▁plain	-2898
▁resse	-2899
habitude	-2900
▁everybody	-2901
▁gun	-2902
erais	-2903
pping	-2904
uméro	-2905
▁autor	-2906
▁fumer	-2907
▁japon	-2908
▁numéro	-2909
▁télévision	-2910
tres	-2911
Dites	-2912
année	-2913
▁assis	-2914
▁façon	-2915
▁invited	-2916
▁expensive	-2917
ps	-2918
▁cup	-2919
▁desc	-2920
Faites	-2921
Pensez	-2922
▁fleur	-2923
▁appelé	-2924
▁trente	-2925
▁vacances	-2926
▁Australia	-2927
tel	-2928
cial	-2929
▁aimé	-2930
▁bébé	-2931
▁form	-2932
▁montrer	-2933
▁present	-2934
▁watching	-2935
iré	-2936
iqué	-2937
lent	-2938
▁eng	-2939
▁poi	-2940
ative	-2941
naire	-2942
▁perd	-2943
▁asleep	-2944
▁respect	-2945
▁utiliser	-2946
▁commencer	-2947
bed	-2948
tte	-2949
ules	-2950
▁impat	-2951
▁polit	-2952
▁chapeau	-2953
▁vouloir	-2954
intention	-2955
cé	-2956
lace	-2957
▁fas	-2958
Savez	-2959
indre	-2960
▁celle	-2961
▁arrêté	-2962
▁scared	-2963
▁réfléch	-2964
▁wearing	-2965
▁building	-2966
▁mauvaise	-2967
▁rappelle	-2968
rés	-2969
▁bring	-2970
▁hotel	-2971
▁route	-2972
▁magasin	-2973
by	-2974
atre	-2975
ener	-2976
ives	-2977
▁lég	-2978
tures	-2979
▁list	-2980
▁comes	-2981
▁heart	-2982
▁souviens	-2983
rist	-2984
▁clé	-2985
▁lait	-2986
▁necess	-2987
ta	-2988
ush	-2989
ween	-2990
▁bot	-2991
▁mod	-2992
▁rece	-2993
▁tort	-2994
▁Somet	-2995
▁death	-2996
▁lucky	-2997
▁quiet	-2998
▁spent	-2999
▁whole	-3000
▁cannot	-3001
▁decision	-3002
iel	-3003
ighb	-3004
▁boss	-3005
▁font	-3006
▁kids	-3007
▁parv	-3008
▁tall	-3009
▁sport	-3010
▁worth	-3011
▁neighb	-3012
▁worried	-3013
run	-3014
hist	-3015
ités	-3016
ming	-3017
▁méd	-3018
▁ner	-3019
▁whe	-3020
▁began	-3021
▁neige	-3022
▁plein	-3023
▁poser	-3024
▁ticket	-3025
▁arrêter	-3026
▁stupide	-3027
▁information	-3028
▁em	-3029
▁né	-3030
âmes	-3031
érer	-3032
▁Try	-3033
▁rue	-3034
▁goes	-3035
▁nois	-3036
▁ress	-3037
▁réal	-3038
▁elles	-3039
▁lived	-3040
▁puiss	-3041
▁prends	-3042
accident	-3043
▁satisfait	-3044
Ton	-3045
aim	-3046
arth	-3047
quer	-3048
▁New	-3049
▁leg	-3050
▁fact	-3051
ointed	-3052
▁paper	-3053
▁réuss	-3054
▁devant	-3055
▁problems	-3056
set	-3057
▁ait	-3058
▁deb	-3059
Comme	-3060
▁robe	-3061
▁wall	-3062
arrêter	-3063
▁became	-3064
▁others	-3065
▁répond	-3066
▁satisf	-3067
Cet	-3068
irt	-3069
ton	-3070
chez	-3071
gles	-3072
érif	-3073
▁Sun	-3074
▁choc	-3075
▁milk	-3076
▁mill	-3077
▁soin	-3078
▁vête	-3079
▁fasse	-3080
▁fight	-3081
▁prête	-3082
▁store	-3083
▁accomp	-3084
▁garder	-3085
▁recomm	-3086
▁rapport	-3087
▁telling	-3088
iversaire	-3089
▁terrible	-3090
ru	-3091
ceed	-3092
▁urg	-3093
▁Here	-3094
▁lock	-3095
▁appro	-3096
▁drunk	-3097
▁between	-3098
▁changed	-3099
▁faisait	-3100
Des	-3101
aff	-3102
▁Af	-3103
aged	-3104
▁tim	-3105
ended	-3106
▁donc	-3107
▁rare	-3108
▁clear	-3109
▁possi	-3110
▁river	-3111
▁cadeau	-3112
▁handle	-3113
▁préfère	-3114
▁studying	-3115
▁Everything	-3116
Auc	-3117
▁ve	-3118
bres	-3119
ccas	-3120
iter	-3121
room	-3122
▁jet	-3123
▁sty	-3124
onner	-3125
▁cake	-3126
▁norm	-3127
▁finir	-3128
▁Sunday	-3129
▁veulent	-3130
▁weekend	-3131
▁birthday	-3132
▁language	-3133
Aim	-3134
ouss	-3135
▁amb	-3136
▁ble	-3137
▁set	-3138
▁libre	-3139
acheter	-3140
ût	-3141
ape	-3142
▁An	-3143
▁Re	-3144
onom	-3145
oose	-3146
▁déf	-3147
▁dest	-3148
▁organ	-3149
▁remar	-3150
▁rouge	-3151
▁killed	-3152
▁suppos	-3153
▁travel	-3154
▁vêtements	-3155
noc	-3156
ove	-3157
ques	-3158
▁One	-3159
ature	-3160
ettez	-3161
fully	-3162
▁clim	-3163
▁takes	-3164
▁which	-3165
▁wrote	-3166
▁borrow	-3167
▁closed	-3168
▁allowed	-3169
▁vieille	-3170
ensé	-3171
▁atte	-3172
▁guerre	-3173
▁plaisir	-3174
▁success	-3175
▁nombreuses	-3176
ned	-3177
èque	-3178
▁trad	-3179
ormais	-3180
▁liked	-3181
▁somme	-3182
▁voulu	-3183
▁stopped	-3184
lo	-3185
ding	-3186
ness	-3187
▁riv	-3188
oudre	-3189
▁bras	-3190
▁poss	-3191
▁symp	-3192
illage	-3193
▁absol	-3194
▁poste	-3195
▁Christ	-3196
▁lorsqu	-3197
▁rather	-3198
▁conseil	-3199
iver	-3200
ries	-3201
▁fus	-3202
▁Many	-3203
▁sole	-3204
▁thank	-3205
▁marché	-3206
▁missed	-3207
▁talked	-3208
▁cuisine	-3209
▁excuses	-3210
▁pleurer	-3211
▁affaires	-3212
▁laquelle	-3213
▁mistakes	-3214
ari	-3215
aper	-3216
▁hid	-3217
▁réc	-3218
ieurs	-3219
▁innoc	-3220
▁helped	-3221
▁prefer	-3222
▁affaire	-3223
▁strange	-3224
▁happening	-3225
▁meilleure	-3226
▁tot	-3227
▁ferm	-3228
▁gets	-3229
▁half	-3230
▁court	-3231
▁exper	-3232
▁necessary	-3233
ène	-3234
arre	-3235
areil	-3236
idence	-3237
▁dange	-3238
▁earth	-3239
▁order	-3240
▁words	-3241
▁gâteau	-3242
▁porter	-3243
▁soleil	-3244
▁étudiants	-3245
bli	-3246
ails	-3247
▁case	-3248
▁jard	-3249
▁mang	-3250
raient	-3251
▁known	-3252
▁worked	-3253
▁lumière	-3254
▁flo	-3255
▁mer	-3256
ières	-3257
ortes	-3258
▁chev	-3259
▁haut	-3260
▁donne	-3261
▁nerve	-3262
▁plans	-3263
▁pleas	-3264
▁absent	-3265
▁filles	-3266
▁quatre	-3267
▁speaking	-3268
▁dangerous	-3269
od	-3270
▁Un	-3271
▁chem	-3272
▁mots	-3273
▁noir	-3274
▁sell	-3275
▁along	-3276
▁carte	-3277
▁liste	-3278
▁sense	-3279
▁mourir	-3280
▁street	-3281
▁connaît	-3282
▁forward	-3283
▁impatient	-3284
isc	-3285
▁At	-3286
▁Le	-3287
▁pan	-3288
▁envir	-3289
▁souff	-3290
▁terre	-3291
▁upset	-3292
▁possib	-3293
▁smoking	-3294
▁intéressant	-3295
▁suffisamment	-3296
gé	-3297
All	-3298
emb	-3299
enf	-3300
ohn	-3301
ayez	-3302
rest	-3303
unes	-3304
▁ess	-3305
▁tas	-3306
▁prep	-3307
▁beach	-3308
▁rendu	-3309
▁entrer	-3310
▁evening	-3311
▁figured	-3312
▁quiconque	-3313
▁reconnaiss	-3314
sh	-3315
dess	-3316
Soyez	-3317
▁coat	-3318
▁hors	-3319
▁rêve	-3320
▁seat	-3321
▁pluie	-3322
▁speaks	-3323
▁finally	-3324
▁prudent	-3325
▁expected	-3326
cul	-3327
jou	-3328
mas	-3329
mell	-3330
▁inj	-3331
▁Were	-3332
▁priv	-3333
▁rire	-3334
▁plage	-3335
▁série	-3336
▁future	-3337
▁jardin	-3338
▁thirty	-3339
▁brought	-3340
▁correct	-3341
▁désormais	-3342
▁ordinateur	-3343
uel	-3344
aris	-3345
▁bât	-3346
▁eux	-3347
▁card	-3348
▁black	-3349
▁offer	-3350
▁plane	-3351
ccasion	-3352
▁résoudre	-3353
irai	-3354
▁its	-3355
▁less	-3356
▁requ	-3357
▁souci	-3358
▁vérif	-3359
▁changé	-3360
▁manque	-3361
▁demanda	-3362
▁manteau	-3363
▁moindre	-3364
▁solution	-3365
▁dictionary	-3366
▁dictionnaire	-3367
Lors	-3368
owers	-3369
▁John	-3370
▁curi	-3371
▁vaut	-3372
▁amies	-3373
▁divor	-3374
▁least	-3375
▁photos	-3376
▁happens	-3377
▁dimanche	-3378
▁Christmas	-3379
▁embarrass	-3380
▁completely	-3381
▁rid	-3382
mment	-3383
▁accep	-3384
▁année	-3385
▁tasse	-3386
▁années	-3387
▁broken	-3388
entendre	-3389
▁running	-3390
▁u	-3391
erv	-3392
sel	-3393
▁cir	-3394
▁cél	-3395
ument	-3396
▁avoc	-3397
▁driv	-3398
▁move	-3399
▁prot	-3400
▁loves	-3401
▁smell	-3402
▁telle	-3403
▁furent	-3404
▁succeed	-3405
ira	-3406
mon	-3407
ctob	-3408
enty	-3409
▁mér	-3410
▁opt	-3411
▁rav	-3412
▁coll	-3413
▁fine	-3414
▁post	-3415
▁retur	-3416
▁leaving	-3417
▁disappointed	-3418
Rien	-3419
▁pen	-3420
▁slow	-3421
▁soup	-3422
▁dance	-3423
▁Thanks	-3424
▁chiens	-3425
▁fleurs	-3426
▁walked	-3427
▁Someone	-3428
amp	-3429
rib	-3430
roy	-3431
▁ceux	-3432
Prends	-3433
▁génér	-3434
▁emprun	-3435
▁prépar	-3436
▁compris	-3437
▁réparer	-3438
lu	-3439
ub	-3440
ieu	-3441
ront	-3442
▁bate	-3443
▁camp	-3444
▁nett	-3445
▁road	-3446
attends	-3447
hôpital	-3448
▁famous	-3449
▁rivière	-3450
ogn	-3451
iche	-3452
reed	-3453
▁biz	-3454
▁dél	-3455
▁fond	-3456
▁hold	-3457
▁inqui	-3458
▁novel	-3459
▁remer	-3460
▁garden	-3461
▁quitter	-3462
▁intelligent	-3463
▁Pe	-3464
ames	-3465
expl	-3466
▁jeu	-3467
dered	-3468
▁cand	-3469
▁dogs	-3470
▁libr	-3471
blioth	-3472
▁persu	-3473
▁produ	-3474
▁chocol	-3475
▁mesure	-3476
▁written	-3477
▁biblioth	-3478
Cert	-3479
▁mad	-3480
▁mit	-3481
Allez	-3482
ility	-3483
illée	-3484
urope	-3485
▁appe	-3486
▁lawy	-3487
▁dormi	-3488
▁match	-3489
▁parap	-3490
▁progr	-3491
▁treat	-3492
▁constr	-3493
▁seeing	-3494
▁drinking	-3495
ded	-3496
phon	-3497
▁dég	-3498
▁Aren	-3499
▁Lond	-3500
▁remp	-3501
▁tromp	-3502
▁feriez	-3503
▁guitar	-3504
▁habitu	-3505
▁hommes	-3506
▁succès	-3507
▁regarde	-3508
▁swimming	-3509
dé	-3510
exp	-3511
lla	-3512
band	-3513
onné	-3514
▁lac	-3515
endez	-3516
▁honn	-3517
▁effort	-3518
▁weight	-3519
▁actually	-3520
▁dent	-3521
▁sang	-3522
▁réjou	-3523
▁whether	-3524
▁somewhere	-3525
Ses	-3526
cell	-3527
▁Now	-3528
▁fis	-3529
▁pur	-3530
▁rum	-3531
▁note	-3532
▁payé	-3533
selves	-3534
▁crime	-3535
▁poids	-3536
▁suite	-3537
▁umbre	-3538
▁camera	-3539
▁commen	-3540
▁recher	-3541
▁étrang	-3542
▁learned	-3543
▁nervous	-3544
▁pou	-3545
▁bank	-3546
▁crit	-3547
▁ride	-3548
▁appar	-3549
▁noise	-3550
▁rules	-3551
▁crying	-3552
attendre	-3553
▁address	-3554
cha	-3555
prit	-3556
road	-3557
▁jol	-3558
▁sand	-3559
▁souc	-3560
dessus	-3561
▁smoke	-3562
▁taken	-3563
▁People	-3564
▁bateau	-3565
▁recogn	-3566
histoire	-3567
▁library	-3568
▁poisson	-3569
▁apologize	-3570
▁bibliothèque	-3571
ane	-3572
▁loc	-3573
▁Stay	-3574
▁hasn	-3575
▁volé	-3576
usband	-3577
▁glass	-3578
▁grosse	-3579
▁invité	-3580
▁règles	-3581
▁flowers	-3582
▁village	-3583
▁writing	-3584
▁amoureux	-3585
▁consider	-3586
Tr	-3587
Dés	-3588
lev	-3589
uve	-3590
ague	-3591
form	-3592
fort	-3593
icle	-3594
iven	-3595
clock	-3596
upart	-3597
▁ball	-3598
▁mens	-3599
▁waste	-3600
▁gentil	-3601
▁plupart	-3602
▁pleuvoir	-3603
▁souhaite	-3604
▁dangereux	-3605
xc	-3606
dden	-3607
Voici	-3608
prise	-3609
▁vide	-3610
Donnez	-3611
▁floor	-3612
▁commun	-3613
▁honest	-3614
▁projet	-3615
étranger	-3616
▁embrass	-3617
▁husband	-3618
▁painting	-3619
▁somebody	-3620
▁permission	-3621
rig	-3622
ual	-3623
▁hô	-3624
lame	-3625
▁poor	-3626
▁medic	-3627
▁venue	-3628
▁école	-3629
▁endorm	-3630
▁équipe	-3631
▁faisons	-3632
▁étrange	-3633
▁V	-3634
ann	-3635
onv	-3636
ived	-3637
luie	-3638
orté	-3639
▁sad	-3640
▁ski	-3641
▁bord	-3642
▁dise	-3643
▁heav	-3644
▁star	-3645
Prenez	-3646
autres	-3647
▁allée	-3648
▁smart	-3649
Regarde	-3650
appelle	-3651
▁France	-3652
▁autour	-3653
▁femmes	-3654
▁umbrella	-3655
▁parapluie	-3656
ber	-3657
ède	-3658
écu	-3659
omen	-3660
iments	-3661
▁Paris	-3662
▁alive	-3663
▁famil	-3664
▁moyen	-3665
▁repas	-3666
▁resté	-3667
▁bizarre	-3668
▁regardé	-3669
▁japonais	-3670
▁finalement	-3671
ots	-3672
Dans	-3673
▁bath	-3674
▁pauv	-3675
▁faute	-3676
▁intro	-3677
▁uncle	-3678
▁danser	-3679
▁nature	-3680
▁talent	-3681
▁lunettes	-3682
▁shopping	-3683
▁proposition	-3684
év	-3685
▁gas	-3686
Après	-3687
ortez	-3688
▁warm	-3689
▁warn	-3690
▁serez	-3691
▁couple	-3692
▁lawyer	-3693
▁convainc	-3694
Ta	-3695
Dem	-3696
rew	-3697
head	-3698
itut	-3699
▁Put	-3700
▁gif	-3701
▁owe	-3702
ograp	-3703
▁appl	-3704
▁loved	-3705
▁newsp	-3706
▁prote	-3707
▁remerc	-3708
▁rendez	-3709
▁concern	-3710
▁contact	-3711
▁couleur	-3712
▁sommeil	-3713
▁baseball	-3714
▁fatiguée	-3715
▁listening	-3716
mbl	-3717
raî	-3718
illa	-3719
itch	-3720
tern	-3721
▁lim	-3722
▁Chin	-3723
▁York	-3724
▁pire	-3725
▁pizz	-3726
▁chair	-3727
▁salle	-3728
▁solve	-3729
arriver	-3730
érience	-3731
▁pommes	-3732
▁showed	-3733
▁vendre	-3734
▁sérieux	-3735
ior	-3736
ross	-3737
▁bal	-3738
ement	-3739
irent	-3740
▁guys	-3741
▁side	-3742
▁oncle	-3743
essayer	-3744
▁devenu	-3745
▁marche	-3746
▁normal	-3747
▁sleeping	-3748
▁fonctionne	-3749
ech	-3750
rès	-3751
Beau	-3752
Plus	-3753
amen	-3754
oles	-3755
yons	-3756
auche	-3757
ocked	-3758
outer	-3759
▁desk	-3760
▁fera	-3761
▁ship	-3762
▁soci	-3763
▁coûte	-3764
▁médic	-3765
▁white	-3766
▁direct	-3767
▁effray	-3768
▁fermer	-3769
▁jeunes	-3770
▁opened	-3771
▁réussi	-3772
▁thinks	-3773
▁coucher	-3774
▁plusieurs	-3775
agn	-3776
way	-3777
▁Se	-3778
eriez	-3779
ediate	-3780
friend	-3781
▁consc	-3782
▁dirait	-3783
▁ouvert	-3784
Beaucoup	-3785
▁immediate	-3786
cte	-3787
rice	-3788
ustom	-3789
utile	-3790
▁faul	-3791
nement	-3792
▁girls	-3793
▁mount	-3794
▁tenir	-3795
▁tombé	-3796
Arrêtez	-3797
▁during	-3798
▁entend	-3799
▁sentir	-3800
▁Nothing	-3801
▁parfois	-3802
▁rappeler	-3803
▁vacation	-3804
exc	-3805
▁10	-3806
▁mir	-3807
▁pot	-3808
ilité	-3809
onvén	-3810
▁pull	-3811
▁tran	-3812
Toutes	-3813
▁blame	-3814
▁means	-3815
▁pouss	-3816
Lorsque	-3817
▁patron	-3818
onvénient	-3819
▁appareil	-3820
▁medicine	-3821
▁Australie	-3822
êt	-3823
omb	-3824
rop	-3825
Gard	-3826
imag	-3827
avion	-3828
▁aidé	-3829
▁doub	-3830
▁keys	-3831
▁admit	-3832
▁breat	-3833
▁horri	-3834
▁ignor	-3835
▁impro	-3836
▁smile	-3837
▁dessus	-3838
▁result	-3839
rup	-3840
▁hop	-3841
▁sel	-3842
ained	-3843
igner	-3844
olved	-3845
▁prit	-3846
ouvert	-3847
▁cassé	-3848
▁color	-3849
▁début	-3850
▁lever	-3851
▁prêter	-3852
▁résult	-3853
▁attendu	-3854
▁command	-3855
▁concent	-3856
▁réjouis	-3857
▁tableau	-3858
▁willing	-3859
▁prepared	-3860
▁sometimes	-3861
▁rh	-3862
Mary	-3863
ator	-3864
▁Any	-3865
▁det	-3866
▁golf	-3867
▁grou	-3868
▁lend	-3869
atique	-3870
iennes	-3871
oublie	-3872
▁After	-3873
▁horse	-3874
▁malad	-3875
▁piece	-3876
▁bother	-3877
▁course	-3878
▁either	-3879
▁ignore	-3880
▁transl	-3881
déjeuner	-3882
▁college	-3883
olé	-3884
▁ni	-3885
iles	-3886
ring	-3887
▁mign	-3888
▁oise	-3889
▁pron	-3890
▁charg	-3891
▁doute	-3892
▁gagné	-3893
▁lying	-3894
▁sorti	-3895
instant	-3896
▁Europe	-3897
▁abroad	-3898
▁aurais	-3899
▁cheval	-3900
▁courir	-3901
▁excell	-3902
▁préfér	-3903
▁speech	-3904
▁mariage	-3905
▁mention	-3906
▁football	-3907
où	-3908
cée	-3909
Ceci	-3910
ffic	-3911
▁sle	-3912
▁fool	-3913
▁joke	-3914
érique	-3915
▁apart	-3916
▁donna	-3917
▁spoke	-3918
▁belong	-3919
▁chante	-3920
▁durant	-3921
▁sudden	-3922
▁courant	-3923
▁seconde	-3924
attendais	-3925
▁parviens	-3926
▁Something	-3927
▁présenter	-3928
▁ressemble	-3929
▁anniversaire	-3930
▁past	-3931
▁prép	-3932
▁shot	-3933
▁magaz	-3934
Quelque	-3935
iennent	-3936
▁asking	-3937
▁attent	-3938
▁refuse	-3939
▁sounds	-3940
▁triste	-3941
▁voyager	-3942
▁conseils	-3943
▁boyfriend	-3944
▁telephone	-3945
Et	-3946
irm	-3947
ides	-3948
lier	-3949
▁dos	-3950
▁top	-3951
après	-3952
▁club	-3953
▁pard	-3954
▁allés	-3955
▁avocat	-3956
▁parlez	-3957
▁appeler	-3958
▁garçons	-3959
▁promised	-3960
ket	-3961
uer	-3962
▁On	-3963
Sois	-3964
▁cry	-3965
▁maj	-3966
▁bons	-3967
▁shut	-3968
Allons	-3969
écrire	-3970
▁chats	-3971
▁seras	-3972
▁afford	-3973
▁bonnes	-3974
▁charge	-3975
▁destin	-3976
▁surviv	-3977
▁waited	-3978
ièrement	-3979
▁chemise	-3980
▁glasses	-3981
rom	-3982
alle	-3983
land	-3984
ored	-3985
▁rég	-3986
ently	-3987
▁Both	-3988
▁Those	-3989
appeler	-3990
entends	-3991
▁papier	-3992
▁seriez	-3993
▁dressed	-3994
▁bâtiment	-3995
▁innocent	-3996
▁supporter	-3997
▁difference	-3998
▁différence	-3999
outh	-4000
uite	-4001
▁ice	-4002
ately	-4003
estez	-4004
gment	-4005
▁effe	-4006
▁risk	-4007
▁tuer	-4008
▁vict	-4009
itable	-4010
▁ouver	-4011
▁shirt	-4012
▁across	-4013
▁figure	-4014
▁proche	-4015
▁savons	-4016
▁douleur	-4017
▁foreign	-4018
▁comprend	-4019
▁pictures	-4020
▁connaître	-4021
▁également	-4022
▁immediately	-4023
dge	-4024
aque	-4025
▁ext	-4026
reuse	-4027
▁cess	-4028
▁math	-4029
▁voix	-4030
▁cross	-4031
▁pieds	-4032
▁pizza	-4033
▁price	-4034
▁cancer	-4035
Voudriez	-4036
▁suspect	-4037
intérieur	-4038
▁distance	-4039
▁signifie	-4040
▁carefully	-4041
Ai	-4042
lax	-4043
oto	-4044
▁sn	-4045
▁gri	-4046
▁clés	-4047
▁deep	-4048
▁fair	-4049
▁plac	-4050
▁send	-4051
▁spéc	-4052
ouvrir	-4053
▁aimes	-4054
▁apple	-4055
▁préfé	-4056
▁banque	-4057
▁consid	-4058
▁tranqu	-4059
▁cherche	-4060
▁courage	-4061
uellement	-4062
Me	-4063
ilt	-4064
▁cur	-4065
▁dut	-4066
▁rée	-4067
amour	-4068
▁décl	-4069
▁loud	-4070
▁tend	-4071
▁aviez	-4072
▁menti	-4073
▁senti	-4074
▁storm	-4075
▁harder	-4076
▁movies	-4077
▁shower	-4078
▁suivre	-4079
▁préféré	-4080
▁tempête	-4081
Am	-4082
gar	-4083
ird	-4084
ule	-4085
▁Il	-4086
tenu	-4087
▁cous	-4088
▁vend	-4089
▁wake	-4090
Montre	-4091
▁given	-4092
▁allait	-4093
▁inside	-4094
▁object	-4095
▁promis	-4096
ignorais	-4097
▁driving	-4098
▁service	-4099
▁special	-4100
▁involved	-4101
aint	-4102
▁egg	-4103
▁mou	-4104
▁pai	-4105
Aucun	-4106
ieuse	-4107
inqui	-4108
veral	-4109
▁const	-4110
▁fault	-4111
▁fired	-4112
▁relax	-4113
▁agreed	-4114
▁environ	-4115
▁guitare	-4116
▁réussir	-4117
▁several	-4118
▁whatever	-4119
▁condition	-4120
▁satisfied	-4121
▁conscience	-4122
so	-4123
nem	-4124
ened	-4125
▁ach	-4126
▁mét	-4127
▁tie	-4128
alous	-4129
ament	-4130
▁ayez	-4131
▁comb	-4132
▁Since	-4133
▁rhume	-4134
▁roman	-4135
▁sucre	-4136
▁throw	-4137
▁viande	-4138
▁animaux	-4139
▁convers	-4140
▁opportun	-4141
▁téléphon	-4142
▁continuer	-4143
▁retourner	-4144
▁réfléchir	-4145
env	-4146
men	-4147
opp	-4148
oué	-4149
und	-4150
oned	-4151
▁écl	-4152
▁impl	-4153
iendra	-4154
▁drôle	-4155
▁quelc	-4156
▁repro	-4157
▁women	-4158
▁worse	-4159
ilement	-4160
▁kissed	-4161
▁urgent	-4162
▁volont	-4163
▁amusant	-4164
▁program	-4165
▁étudiant	-4166
▁travaillé	-4167
lc	-4168
ief	-4169
ufs	-4170
acle	-4171
isée	-4172
▁web	-4173
▁aies	-4174
▁chou	-4175
▁vole	-4176
▁ahead	-4177
▁chaise	-4178
▁choose	-4179
▁marier	-4180
▁earlier	-4181
▁semaines	-4182
rier	-4183
▁cho	-4184
▁lic	-4185
▁tué	-4186
▁vot	-4187
▁cute	-4188
▁extr	-4189
▁jump	-4190
▁proc	-4191
▁ring	-4192
▁shop	-4193
▁Sorry	-4194
▁carry	-4195
▁power	-4196
▁twice	-4197
ivement	-4198
▁employ	-4199
▁compter	-4200
▁enjoyed	-4201
▁erreurs	-4202
▁raining	-4203
Quiconque	-4204
▁discours	-4205
▁discussion	-4206
▁facilement	-4207
irez	-4208
yoto	-4209
éter	-4210
▁mid	-4211
▁zoo	-4212
▁éte	-4213
Quels	-4214
oitié	-4215
onter	-4216
venue	-4217
vious	-4218
ément	-4219
▁acqu	-4220
▁vent	-4221
examen	-4222
▁confe	-4223
▁servi	-4224
▁slept	-4225
▁weird	-4226
▁assist	-4227
▁easily	-4228
▁played	-4229
▁taille	-4230
iversité	-4231
▁dérange	-4232
▁laissez	-4233
▁million	-4234
▁propres	-4235
▁actuelle	-4236
▁souvenir	-4237
▁conseillé	-4238
ué	-4239
erme	-4240
ling	-4241
▁dès	-4242
▁mem	-4243
Reste	-4244
▁danc	-4245
▁lake	-4246
▁sauv	-4247
▁éche	-4248
icated	-4249
▁condu	-4250
ctement	-4251
▁lequel	-4252
▁moitié	-4253
▁promen	-4254
▁soirée	-4255
Regardez	-4256
▁introdu	-4257
▁mensong	-4258
▁persuad	-4259
▁traffic	-4260
▁American	-4261
▁anywhere	-4262
▁sentiment	-4263
eth	-4264
empl	-4265
ième	-4266
tats	-4267
▁Isn	-4268
Venez	-4269
ences	-4270
iving	-4271
▁Show	-4272
▁blue	-4273
▁held	-4274
Restez	-4275
▁marié	-4276
▁stylo	-4277
▁hardly	-4278
▁passed	-4279
▁passée	-4280
▁pauvre	-4281
▁risque	-4282
▁America	-4283
▁partici	-4284
aintenant	-4285
▁contente	-4286
▁démission	-4287
af	-4288
oof	-4289
idée	-4290
ingt	-4291
érop	-4292
▁lig	-4293
▁dish	-4294
▁surp	-4295
esprit	-4296
stairs	-4297
▁blanc	-4298
▁coute	-4299
▁dents	-4300
▁empty	-4301
▁fermé	-4302
▁pleur	-4303
▁decide	-4304
▁dispar	-4305
▁excuse	-4306
▁likely	-4307
▁permis	-4308
▁article	-4309
▁deserve	-4310
▁semblez	-4311
▁viendra	-4312
até	-4313
▁Al	-4314
▁hy	-4315
ists	-4316
pose	-4317
▁fri	-4318
Ferme	-4319
ities	-4320
▁Turn	-4321
▁boys	-4322
▁ciel	-4323
▁fant	-4324
▁mail	-4325
itions	-4326
▁boute	-4327
▁ennuy	-4328
▁honte	-4329
▁stuff	-4330
▁weeks	-4331
éroport	-4332
▁cherch	-4333
▁gauche	-4334
▁instru	-4335
▁ouvrir	-4336
▁honnête	-4337
▁singing	-4338
▁staying	-4339
▁apprécié	-4340
▁neighbor	-4341
▁enseignant	-4342
▁responsable	-4343
▁conversation	-4344
adm	-4345
aps	-4346
ales	-4347
ined	-4348
père	-4349
wich	-4350
▁fle	-4351
▁nav	-4352
ordin	-4353
▁célè	-4354
▁docu	-4355
▁fail	-4356
▁lied	-4357
▁line	-4358
▁meat	-4359
attrap	-4360
▁ferait	-4361
▁scient	-4362
▁vivent	-4363
▁continue	-4364
▁sandwich	-4365
▁emprunter	-4366
▁television	-4367
▁U	-4368
apé	-4369
hip	-4370
ple	-4371
vec	-4372
Conn	-4373
book	-4374
enci	-4375
▁brû	-4376
▁cig	-4377
▁den	-4378
▁obs	-4379
▁enem	-4380
ouvons	-4381
▁calme	-4382
▁force	-4383
▁rends	-4384
▁groupe	-4385
▁profond	-4386
▁vouliez	-4387
▁experience	-4388
▁inconvénient	-4389
▁ev	-4390
Hier	-4391
rase	-4392
teen	-4393
âche	-4394
▁ash	-4395
alité	-4396
▁Make	-4397
▁susp	-4398
urance	-4399
▁arbre	-4400
▁pleut	-4401
▁vingt	-4402
▁avions	-4403
▁douche	-4404
▁envoyé	-4405
▁hundre	-4406
▁longue	-4407
▁airport	-4408
▁docteur	-4409
▁protect	-4410
▁support	-4411
▁supposé	-4412
▁followed	-4413
▁nettoyer	-4414
impression	-4415
▁newspaper	-4416
▁wonderful	-4417
▁reconnaissant	-4418
gy	-4419
erm	-4420
gle	-4421
oie	-4422
▁hu	-4423
Avec	-4424
Suis	-4425
▁eye	-4426
Viens	-4427
ughed	-4428
▁Wait	-4429
▁also	-4430
▁boat	-4431
▁croy	-4432
▁fass	-4433
▁lead	-4434
▁mien	-4435
▁elect	-4436
▁heavy	-4437
▁ideas	-4438
▁marry	-4439
▁sache	-4440
▁vieil	-4441
▁driver	-4442
▁gotten	-4443
▁parole	-4444
▁superm	-4445
▁visage	-4446
fortable	-4447
▁avaient	-4448
▁décider	-4449
▁injured	-4450
▁laughed	-4451
▁refused	-4452
▁younger	-4453
▁horrible	-4454
▁mountain	-4455
▁rarement	-4456
oux	-4457
arch	-4458
cent	-4459
hier	-4460
rite	-4461
▁bur	-4462
▁fly	-4463
▁œil	-4464
hôtel	-4465
▁crav	-4466
▁dipl	-4467
▁pack	-4468
▁prov	-4469
▁vécu	-4470
dedans	-4471
▁drank	-4472
▁prévu	-4473
ception	-4474
▁portes	-4475
▁rentré	-4476
▁winter	-4477
Voudrais	-4478
Maintenant	-4479
▁beginning	-4480
▁différent	-4481
▁population	-4482
▁imagination	-4483
eum	-4484
iné	-4485
nez	-4486
vre	-4487
▁ém	-4488
esse	-4489
isse	-4490
▁gift	-4491
▁grat	-4492
▁suic	-4493
▁adore	-4494
▁jolie	-4495
▁Should	-4496
▁copine	-4497
▁mariée	-4498
▁princi	-4499
aéroport	-4500
▁animals	-4501
▁convinc	-4502
▁fishing	-4503
▁herself	-4504
▁sentence	-4505
équ	-4506
Quoi	-4507
Unis	-4508
ards	-4509
oque	-4510
umes	-4511
▁For	-4512
▁cul	-4513
▁Even	-4514
▁calm	-4515
▁goût	-4516
▁page	-4517
▁soul	-4518
father	-4519
inture	-4520
▁Bring	-4521
▁arrêt	-4522
▁morte	-4523
Aujourd	-4524
▁bottle	-4525
▁failed	-4526
▁control	-4527
▁cooking	-4528
▁painted	-4529
▁walking	-4530
▁commença	-4531
Va	-4532
Dev	-4533
cks	-4534
gie	-4535
rie	-4536
acun	-4537
éric	-4538
▁cer	-4539
▁sim	-4540
issez	-4541
▁liar	-4542
ifique	-4543
▁built	-4544
▁censé	-4545
▁moved	-4546
▁veget	-4547
▁crains	-4548
▁incroy	-4549
▁leaves	-4550
▁montré	-4551
▁nation	-4552
▁augment	-4553
▁promets	-4554
▁sitting	-4555
▁remercier	-4556
000	-4557
enn	-4558
éch	-4559
oche	-4560
olid	-4561
▁réd	-4562
ering	-4563
ushed	-4564
▁bird	-4565
▁grad	-4566
▁sale	-4567
▁holid	-4568
▁merve	-4569
▁suitc	-4570
térieur	-4571
▁battre	-4572
▁blague	-4573
▁gouver	-4574
▁manqué	-4575
▁phrase	-4576
▁plenty	-4577
▁cravate	-4578
▁partout	-4579
▁intention	-4580
▁importante	-4581
▁tranquille	-4582
ash	-4583
alif	-4584
hood	-4585
levé	-4586
arbre	-4587
▁body	-4588
▁duty	-4589
▁welc	-4590
▁wood	-4591
import	-4592
▁Leave	-4593
▁garde	-4594
▁grave	-4595
▁pomme	-4596
▁sight	-4597
▁Canadi	-4598
▁commit	-4599
▁debout	-4600
▁mentir	-4601
▁remind	-4602
▁jealous	-4603
▁attraper	-4604
▁laughing	-4605
▁vérifier	-4606
▁certainement	-4607
erc	-4608
aked	-4609
vern	-4610
inter	-4611
▁crow	-4612
▁land	-4613
▁neuf	-4614
▁Kyoto	-4615
▁knife	-4616
▁lente	-4617
▁meant	-4618
▁ought	-4619
▁quitté	-4620
▁seemed	-4621
▁accused	-4622
▁conduis	-4623
▁couteau	-4624
▁planning	-4625
▁convinced	-4626
▁intéressé	-4627
▁grandfather	-4628
Te	-4629
ef	-4630
sy	-4631
▁ly	-4632
ased	-4633
iced	-4634
resh	-4635
▁coo	-4636
▁exh	-4637
ached	-4638
ctive	-4639
erait	-4640
istes	-4641
▁Didn	-4642
▁bain	-4643
▁hadn	-4644
▁sauf	-4645
icious	-4646
▁share	-4647
▁taught	-4648
▁comporte	-4649
▁impressed	-4650
▁recognize	-4651
hum	-4652
ror	-4653
▁ed	-4654
aies	-4655
elez	-4656
erne	-4657
olen	-4658
▁eut	-4659
▁jud	-4660
▁lev	-4661
▁rom	-4662
▁tel	-4663
aveur	-4664
▁burn	-4665
▁cell	-4666
▁rang	-4667
ctions	-4668
réable	-4669
▁extre	-4670
▁plays	-4671
▁refus	-4672
▁simil	-4673
▁apples	-4674
▁auriez	-4675
▁cigare	-4676
▁discut	-4677
▁stolen	-4678
▁séjour	-4679
▁célèbre	-4680
▁portait	-4681
▁montagne	-4682
▁occasion	-4683
▁excellent	-4684
Av	-4685
oph	-4686
Bien	-4687
Cont	-4688
aken	-4689
ings	-4690
ract	-4691
èves	-4692
▁kil	-4693
▁sky	-4694
▁spr	-4695
arter	-4696
▁cats	-4697
▁cool	-4698
▁cray	-4699
▁dort	-4700
▁hang	-4701
▁pier	-4702
anceux	-4703
▁doubt	-4704
▁excit	-4705
▁frais	-4706
▁gérer	-4707
▁hôtel	-4708
▁plant	-4709
▁disent	-4710
▁faveur	-4711
▁garage	-4712
▁govern	-4713
▁invest	-4714
▁parles	-4715
▁compagn	-4716
▁instant	-4717
▁ressent	-4718
▁revenir	-4719
▁répondu	-4720
▁silence	-4721
apprendre	-4722
▁cuisiner	-4723
▁préparer	-4724
▁semblait	-4725
▁seriously	-4726
amb	-4727
ges	-4728
rim	-4729
rend	-4730
îmes	-4731
▁plu	-4732
▁siè	-4733
▁wed	-4734
▁char	-4735
▁feed	-4736
▁penc	-4737
▁pont	-4738
▁Today	-4739
▁Whose	-4740
▁ciném	-4741
▁prêts	-4742
▁quant	-4743
▁seuls	-4744
▁accord	-4745
▁canapé	-4746
▁mienne	-4747
▁museum	-4748
▁obligé	-4749
▁popular	-4750
▁société	-4751
▁studied	-4752
▁tickets	-4753
extérieur	-4754
▁feelings	-4755
▁bouteille	-4756
▁convaincu	-4757
▁Sp	-4758
atch	-4759
orme	-4760
tait	-4761
▁Has	-4762
▁def	-4763
▁flu	-4764
▁loi	-4765
chedu	-4766
▁eggs	-4767
▁fill	-4768
▁lone	-4769
Désolé	-4770
ograph	-4771
rested	-4772
▁fiche	-4773
▁kitch	-4774
▁morce	-4775
▁repos	-4776
▁sugar	-4777
▁trees	-4778
▁explan	-4779
▁revenu	-4780
▁tombée	-4781
▁adresse	-4782
▁ashamed	-4783
▁extreme	-4784
▁extrême	-4785
▁ordered	-4786
▁sourire	-4787
▁spécial	-4788
▁wedding	-4789
▁absolute	-4790
▁direction	-4791
▁profession	-4792
▁habituellement	-4793
ear	-4794
nées	-4795
rupt	-4796
time	-4797
▁ele	-4798
▁arme	-4799
Essaie	-4800
arning	-4801
cation	-4802
▁blind	-4803
▁blood	-4804
▁fallu	-4805
▁forme	-4806
▁button	-4807
▁cinéma	-4808
▁months	-4809
▁protég	-4810
▁toilet	-4811
▁choisir	-4812
▁courses	-4813
▁endormi	-4814
▁habitué	-4815
▁hundred	-4816
▁kitchen	-4817
▁realize	-4818
▁magazine	-4819
▁lentement	-4820
▁incroyable	-4821
▁réellement	-4822
cts	-4823
▁er	-4824
acqu	-4825
▁cre	-4826
▁ens	-4827
itive	-4828
oyons	-4829
▁affe	-4830
▁sout	-4831
▁wash	-4832
▁aware	-4833
▁corps	-4834
▁feels	-4835
▁détest	-4836
▁obtenu	-4837
▁taller	-4838
▁though	-4839
▁warned	-4840
▁arrivée	-4841
▁fortune	-4842
▁joindre	-4843
▁project	-4844
▁préfére	-4845
▁chouette	-4846
▁débarrass	-4847
▁recommand	-4848
▁quelconque	-4849
Cr	-4850
Pas	-4851
aît	-4852
bes	-4853
ifs	-4854
urs	-4855
Même	-4856
erie	-4857
sons	-4858
cture	-4859
ories	-4860
osion	-4861
▁Jack	-4862
▁retr	-4863
▁vert	-4864
ousand	-4865
▁avion	-4866
▁gagne	-4867
▁laver	-4868
▁pause	-4869
▁saved	-4870
▁fruits	-4871
▁lonely	-4872
▁sooner	-4873
▁étudié	-4874
empêcher	-4875
▁manager	-4876
▁possède	-4877
▁conseilla	-4878
▁président	-4879
▁rencontrés	-4880
▁sérieusement	-4881
▁vô	-4882
ouer	-4883
▁jal	-4884
▁pén	-4885
▁unc	-4886
Marie	-4887
▁draw	-4888
▁fing	-4889
▁nage	-4890
▁sept	-4891
▁soud	-4892
ounded	-4893
▁démén	-4894
▁glace	-4895
▁paint	-4896
▁stick	-4897
▁utile	-4898
asseoir	-4899
▁client	-4900
▁dépend	-4901
▁faster	-4902
▁return	-4903
▁attrapé	-4904
▁nerveux	-4905
▁univers	-4906
▁arrested	-4907
▁déranger	-4908
▁personal	-4909
▁promesse	-4910
▁proposal	-4911
▁promenade	-4912
▁invitation	-4913
amm	-4914
aré	-4915
œil	-4916
urch	-4917
▁doi	-4918
▁rej	-4919
armes	-4920
▁Most	-4921
▁doig	-4922
▁larg	-4923
▁memb	-4924
▁tire	-4925
idered	-4926
▁annul	-4927
▁awake	-4928
▁behav	-4929
▁ferme	-4930
▁forte	-4931
▁gener	-4932
▁idées	-4933
▁march	-4934
▁stole	-4935
Pouvons	-4936
embrass	-4937
▁moyens	-4938
▁sleepy	-4939
▁conduit	-4940
▁langues	-4941
▁ouverte	-4942
▁produire	-4943
▁prudente	-4944
entretenir	-4945
université	-4946
▁apartment	-4947
▁expecting	-4948
Ret	-4949
Vos	-4950
iar	-4951
its	-4952
▁So	-4953
▁Tu	-4954
Sont	-4955
êmes	-4956
▁nez	-4957
aurai	-4958
xcuse	-4959
▁ador	-4960
▁déçu	-4961
▁stri	-4962
▁bread	-4963
▁cruel	-4964
▁dirai	-4965
▁mille	-4966
▁élect	-4967
écouter	-4968
▁bouton	-4969
▁invent	-4970
▁calling	-4971
▁efforts	-4972
▁maladie	-4973
▁obvious	-4974
▁princip	-4975
▁regarda	-4976
▁retrait	-4977
▁difficul	-4978
▁received	-4979
▁heureuses	-4980
▁particular	-4981
br	-4982
eng	-4983
ety	-4984
vis	-4985
chée	-4986
omas	-4987
rées	-4988
unte	-4989
▁God	-4990
▁fif	-4991
▁laz	-4992
acter	-4993
▁Call	-4994
▁adop	-4995
▁dure	-4996
▁self	-4997
▁avoid	-4998
▁connu	-4999
▁musée	-5000
▁stood	-5001
▁sweet	-5002
▁tient	-5003
▁voice	-5004
▁worst	-5005
▁buying	-5006
▁ennuis	-5007
▁escape	-5008
▁grands	-5009
▁nobody	-5010
▁verrou	-5011
▁account	-5012
▁fallait	-5013
▁history	-5014
▁missing	-5015
▁préparé	-5016
▁Canadian	-5017
▁autorisé	-5018
▁regrette	-5019
▁terminer	-5020
▁voitures	-5021
▁extremely	-5022
▁rencontre	-5023
▁government	-5024
▁explanation	-5025
▁extrêmement	-5026
▁gouvernement	-5027
▁parfaitement	-5028
ida	-5029
avis	-5030
oken	-5031
romp	-5032
éner	-5033
▁Ask	-5034
▁arr	-5035
▁cos	-5036
Aimes	-5037
Aimez	-5038
▁file	-5039
▁hide	-5040
▁vase	-5041
▁fière	-5042
▁sympa	-5043
▁teeth	-5044
affaire	-5045
▁boring	-5046
▁breath	-5047
▁bridge	-5048
▁common	-5049
▁forced	-5050
▁schedu	-5051
▁helping	-5052
▁sembles	-5053
▁patience	-5054
▁suddenly	-5055
▁permettre	-5056
▁convaincre	-5057
▁préférerais	-5058
▁actuellement	-5059
Tes	-5060
Vas	-5061
nel	-5062
orn	-5063
ows	-5064
aill	-5065
tead	-5066
uits	-5067
êche	-5068
▁aud	-5069
iling	-5070
▁Help	-5071
▁afin	-5072
▁asse	-5073
▁lève	-5074
▁meur	-5075
▁pair	-5076
allais	-5077
▁exerc	-5078
▁manqu	-5079
▁seven	-5080
ituteur	-5081
▁London	-5082
▁acting	-5083
▁church	-5084
▁crimin	-5085
▁locked	-5086
▁pronon	-5087
▁seules	-5088
▁slowly	-5089
▁pensait	-5090
▁subject	-5091
▁watched	-5092
▁agréable	-5093
▁malheure	-5094
▁pourriez	-5095
▁protéger	-5096
▁considered	-5097
bo	-5098
uts	-5099
ilty	-5100
urry	-5101
voir	-5102
▁ant	-5103
▁cab	-5104
▁map	-5105
gress	-5106
rends	-5107
▁amaz	-5108
▁meal	-5109
▁mets	-5110
▁pars	-5111
▁vote	-5112
ctober	-5113
ctobre	-5114
▁enter	-5115
▁fresh	-5116
▁mouth	-5117
▁pract	-5118
Essayez	-5119
artient	-5120
atiques	-5121
occuper	-5122
oubliez	-5123
étudier	-5124
▁animal	-5125
▁custom	-5126
▁guilty	-5127
▁prenez	-5128
▁pêcher	-5129
▁October	-5130
▁faisais	-5131
▁welcome	-5132
▁découvert	-5133
▁confection	-5134
Al	-5135
iée	-5136
met	-5137
ccer	-5138
like	-5139
▁fur	-5140
▁log	-5141
▁yen	-5142
▁cars	-5143
▁chef	-5144
▁fear	-5145
raight	-5146
équipe	-5147
▁démar	-5148
▁peint	-5149
▁claire	-5150
▁espoir	-5151
▁frères	-5152
▁pleine	-5153
▁seront	-5154
▁valise	-5155
▁Jackson	-5156
▁appoint	-5157
▁prévois	-5158
expliquer	-5159
▁préférée	-5160
▁neighbors	-5161
▁politique	-5162
sc	-5163
lac	-5164
ode	-5165
▁Tw	-5166
jets	-5167
▁éve	-5168
aking	-5169
glise	-5170
▁band	-5171
▁chin	-5172
▁drop	-5173
▁faux	-5174
▁feet	-5175
▁grew	-5176
▁ravi	-5177
▁truc	-5178
▁œufs	-5179
aimait	-5180
entend	-5181
▁Never	-5182
▁capit	-5183
▁cried	-5184
▁enemy	-5185
▁enfin	-5186
▁perte	-5187
▁respe	-5188
▁trucs	-5189
encieux	-5190
▁polite	-5191
▁savent	-5192
Certains	-5193
▁ensuite	-5194
▁languages	-5195
▁printemps	-5196
▁silencieux	-5197
der	-5198
ude	-5199
▁Cl	-5200
heur	-5201
▁anc	-5202
▁cré	-5203
▁dom	-5204
▁déç	-5205
▁vir	-5206
Garde	-5207
moire	-5208
ouser	-5209
▁None	-5210
▁huit	-5211
▁joué	-5212
▁magn	-5213
▁pock	-5214
essaie	-5215
▁Hurry	-5216
▁dirty	-5217
▁forcé	-5218
▁résol	-5219
▁tears	-5220
ination	-5221
▁Excuse	-5222
▁giving	-5223
▁notice	-5224
▁serons	-5225
▁singer	-5226
▁soccer	-5227
▁soucie	-5228
▁occupés	-5229
▁visited	-5230
▁visiter	-5231
▁brothers	-5232
▁mensonge	-5233
▁nouveaux	-5234
▁straight	-5235
▁recherche	-5236
▁médicament	-5237
▁appartement	-5238
▁généralement	-5239
oul	-5240
pir	-5241
uck	-5242
ury	-5243
âte	-5244
atur	-5245
ency	-5246
ires	-5247
isez	-5248
érir	-5249
▁cit	-5250
▁tir	-5251
usted	-5252
érons	-5253
▁Life	-5254
▁bike	-5255
▁levé	-5256
▁paix	-5257
▁posé	-5258
▁repr	-5259
▁trah	-5260
ildren	-5261
inform	-5262
▁bored	-5263
▁champ	-5264
▁costu	-5265
▁eight	-5266
▁nulle	-5267
▁peace	-5268
ellerai	-5269
▁attack	-5270
▁choisi	-5271
▁fasses	-5272
▁memory	-5273
▁native	-5274
▁blessée	-5275
▁cookies	-5276
▁manquer	-5277
▁prendra	-5278
▁private	-5279
▁différen	-5280
▁learning	-5281
▁plaisant	-5282
▁absolument	-5283
▁connaissance	-5284
▁correctement	-5285
édé	-5286
▁Fe	-5287
appy	-5288
llem	-5289
tery	-5290
usez	-5291
▁mas	-5292
aimes	-5293
osing	-5294
▁cens	-5295
▁pare	-5296
▁sûrs	-5297
▁till	-5298
▁éner	-5299
▁clair	-5300
▁conne	-5301
▁croit	-5302
▁fourn	-5303
▁group	-5304
▁reach	-5305
▁roses	-5306
▁tight	-5307
abilité	-5308
iendrai	-5309
isition	-5310
▁allerg	-5311
▁caused	-5312
▁cloche	-5313
▁encour	-5314
▁flight	-5315
▁prêtes	-5316
▁refusé	-5317
▁scream	-5318
▁terrif	-5319
▁accepté	-5320
▁pleased	-5321
▁prisonn	-5322
▁volunte	-5323
▁écouter	-5324
Certaines	-5325
▁Somebody	-5326
▁remettre	-5327
▁standing	-5328
▁suitcase	-5329
gn	-5330
Dép	-5331
cut	-5332
ker	-5333
éra	-5334
cted	-5335
line	-5336
quet	-5337
astic	-5338
▁flat	-5339
▁lour	-5340
▁mood	-5341
▁rule	-5342
Chaque	-5343
itesse	-5344
▁Canad	-5345
▁balle	-5346
▁green	-5347
▁hates	-5348
▁keeps	-5349
isément	-5350
▁consac	-5351
▁débrou	-5352
▁expert	-5353
▁habite	-5354
▁racont	-5355
▁record	-5356
▁sortie	-5357
▁légumes	-5358
▁octobre	-5359
▁voisins	-5360
▁accepter	-5361
▁listened	-5362
▁remarqué	-5363
▁schedule	-5364
▁thousand	-5365
▁compagnie	-5366
▁depressed	-5367
▁following	-5368
▁pourrions	-5369
▁absolutely	-5370
ix	-5371
dle	-5372
rog	-5373
rêt	-5374
▁én	-5375
Comp	-5376
Mets	-5377
amis	-5378
aped	-5379
itié	-5380
▁ira	-5381
▁ram	-5382
Alors	-5383
accep	-5384
acket	-5385
ermin	-5386
▁appa	-5387
▁bare	-5388
▁domm	-5389
▁eats	-5390
▁ener	-5391
▁lots	-5392
▁rude	-5393
▁surf	-5394
ateurs	-5395
▁jeter	-5396
▁rains	-5397
▁sûres	-5398
▁voler	-5399
excuser	-5400
▁aiment	-5401
▁candid	-5402
▁celles	-5403
▁cousin	-5404
▁crayon	-5405
▁devait	-5406
▁drinks	-5407
▁droite	-5408
▁hiding	-5409
▁larmes	-5410
▁spoken	-5411
▁élèves	-5412
▁apporté	-5413
▁excited	-5414
▁morceau	-5415
▁chanceux	-5416
▁contrôle	-5417
▁coupable	-5418
▁réveillé	-5419
▁starting	-5420
▁expliquer	-5421
▁president	-5422
Th	-5423
ji	-5424
▁na	-5425
ffre	-5426
▁nég	-5427
▁vus	-5428
▁élé	-5429
▁Hold	-5430
▁prét	-5431
enfant	-5432
▁ambit	-5433
▁corde	-5434
▁faits	-5435
▁gross	-5436
▁gunsh	-5437
▁relig	-5438
▁talks	-5439
ération	-5440
▁bigger	-5441
▁compos	-5442
▁entire	-5443
▁lights	-5444
▁pencil	-5445
▁spring	-5446
▁Londres	-5447
▁chinois	-5448
▁costume	-5449
▁grandes	-5450
▁suggère	-5451
▁comfortable	-5452
▁responsible	-5453
01	-5454
feu	-5455
ged	-5456
ney	-5457
▁Hey	-5458
▁fed	-5459
▁shy	-5460
rivez	-5461
▁aura	-5462
▁auth	-5463
▁ding	-5464
▁loup	-5465
▁nose	-5466
accomp	-5467
▁aille	-5468
▁aimez	-5469
▁annoy	-5470
▁baiss	-5471
▁brave	-5472
▁jambe	-5473
▁lycée	-5474
▁notes	-5475
▁panne	-5476
▁stuck	-5477
Austral	-5478
isation	-5479
▁couper	-5480
▁cuisin	-5481
▁frappé	-5482
▁rentre	-5483
occasion	-5484
▁attract	-5485
▁lettres	-5486
▁prevent	-5487
▁Children	-5488
▁believed	-5489
▁familiar	-5490
▁raconter	-5491
expérience	-5492
▁explained	-5493
▁appointment	-5494
▁entièrement	-5495
▁opportunity	-5496
▁particulier	-5497
▁précisément	-5498
▁intéressante	-5499
ss	-5500
oes	-5501
ging	-5502
iger	-5503
lled	-5504
over	-5505
▁cru	-5506
▁low	-5507
▁riz	-5508
endie	-5509
▁Dieu	-5510
▁Read	-5511
▁hâte	-5512
▁lazy	-5513
▁moon	-5514
▁mord	-5515
Thomas	-5516
échapp	-5517
▁cance	-5518
▁congé	-5519
▁ligne	-5520
▁morts	-5521
▁pours	-5522
▁privé	-5523
▁rentr	-5524
▁stone	-5525
▁venus	-5526
Faisons	-5527
imagine	-5528
▁arbres	-5529
▁billet	-5530
▁circul	-5531
▁energy	-5532
▁nouvel	-5533
▁single	-5534
▁soient	-5535
▁threat	-5536
▁Chinese	-5537
▁doivent	-5538
▁importe	-5539
▁parties	-5540
▁totally	-5541
Australie	-5542
▁chocolat	-5543
▁devraient	-5544
▁traverser	-5545
▁explication	-5546
Eh	-5547
Dep	-5548
inv	-5549
lin	-5550
oté	-5551
éte	-5552
isés	-5553
mère	-5554
orie	-5555
uise	-5556
▁fre	-5557
▁hyp	-5558
▁unh	-5559
Voilà	-5560
ieves	-5561
▁gasp	-5562
▁harm	-5563
▁raté	-5564
▁salt	-5565
▁woke	-5566
Depuis	-5567
▁chess	-5568
▁suivi	-5569
Quelles	-5570
underst	-5571
▁essaya	-5572
▁fright	-5573
▁gentle	-5574
▁mérite	-5575
▁picked	-5576
▁player	-5577
▁unique	-5578
▁wallet	-5579
▁échapp	-5580
▁bedroom	-5581
▁growing	-5582
▁refaire	-5583
▁shocked	-5584
▁washing	-5585
▁chansons	-5586
▁friendly	-5587
▁particip	-5588
▁plaindre	-5589
▁retraite	-5590
▁returned	-5591
▁vegetables	-5592
▁complaining	-5593
Sur	-5594
els	-5595
xim	-5596
cool	-5597
haps	-5598
onna	-5599
usse	-5600
▁emm	-5601
▁oui	-5602
▁psy	-5603
▁rév	-5604
▁unf	-5605
erman	-5606
habit	-5607
riger	-5608
▁earn	-5609
▁poem	-5610
▁rock	-5611
▁rope	-5612
▁wise	-5613
Aucune	-5614
aurait	-5615
velopp	-5616
▁amusé	-5617
▁banan	-5618
▁offre	-5619
▁paire	-5620
▁rêves	-5621
▁songs	-5622
▁vraie	-5623
▁United	-5624
▁valeur	-5625
▁échoué	-5626
Amérique	-5627
▁bagages	-5628
▁changes	-5629
▁curious	-5630
▁disparu	-5631
▁earthqu	-5632
▁healthy	-5633
▁license	-5634
▁matinée	-5635
▁mémoire	-5636
▁commandé	-5637
▁convince	-5638
▁position	-5639
▁trouvait	-5640
ortunately	-5641
Jus	-5642
ara	-5643
arv	-5644
ata	-5645
bum	-5646
hor	-5647
mpl	-5648
neu	-5649
Dois	-5650
igin	-5651
tain	-5652
umer	-5653
èvre	-5654
ûmes	-5655
▁See	-5656
▁neg	-5657
▁occ	-5658
▁tow	-5659
Essay	-5660
▁beat	-5661
▁exha	-5662
▁lady	-5663
▁nine	-5664
▁pant	-5665
▁romp	-5666
▁brill	-5667
▁clock	-5668
▁films	-5669
▁guest	-5670
▁shoot	-5671
▁vôtre	-5672
Attends	-5673
▁cartes	-5674
▁chaude	-5675
▁combat	-5676
▁hasard	-5677
▁matins	-5678
▁nearly	-5679
▁sauver	-5680
▁sombre	-5681
▁chaleur	-5682
▁forgive	-5683
▁meaning	-5684
▁noticed	-5685
▁obtenir	-5686
▁salaire	-5687
▁confused	-5688
▁mistaken	-5689
▁portable	-5690
▁pratique	-5691
▁Sometimes	-5692
▁certainly	-5693
▁chocolate	-5694
▁countries	-5695
▁sentiments	-5696
▁attentivement	-5697
arp	-5698
dra	-5699
oll	-5700
unt	-5701
▁ec	-5702
▁gé	-5703
ares	-5704
inue	-5705
rage	-5706
▁dam	-5707
▁gam	-5708
▁ore	-5709
▁pil	-5710
cious	-5711
istic	-5712
ropri	-5713
venus	-5714
▁Well	-5715
▁mise	-5716
▁obey	-5717
▁skin	-5718
action	-5719
ilités	-5720
▁among	-5721
▁autom	-5722
▁cream	-5723
▁diplô	-5724
▁extra	-5725
▁gradu	-5726
▁incap	-5727
▁major	-5728
▁quart	-5729
▁règle	-5730
cidence	-5731
▁basket	-5732
▁commer	-5733
▁dirais	-5734
▁engine	-5735
▁timide	-5736
▁vienne	-5737
▁voisin	-5738
ications	-5739
▁conclus	-5740
▁contrib	-5741
▁entered	-5742
▁holiday	-5743
▁invités	-5744
▁marrant	-5745
▁purpose	-5746
▁reached	-5747
▁fighting	-5748
▁mauvaises	-5749
▁expérience	-5750
cy	-5751
ym	-5752
Ouv	-5753
chn	-5754
dit	-5755
▁Gr	-5756
▁âg	-5757
itez	-5758
ldom	-5759
ourv	-5760
▁nai	-5761
aband	-5762
chant	-5763
icier	-5764
otion	-5765
rique	-5766
▁bour	-5767
▁disg	-5768
▁rice	-5769
▁vain	-5770
ession	-5771
issent	-5772
lément	-5773
▁China	-5774
▁canad	-5775
▁natur	-5776
▁selon	-5777
▁signe	-5778
▁steal	-5779
èrement	-5780
▁calcul	-5781
▁clever	-5782
▁dreams	-5783
▁oiseau	-5784
▁paraît	-5785
▁places	-5786
▁riches	-5787
▁seldom	-5788
▁soyons	-5789
▁temper	-5790
Attendez	-5791
▁dropped	-5792
▁dépourv	-5793
▁escaped	-5794
▁further	-5795
▁inquiet	-5796
▁lecture	-5797
▁vitesse	-5798
▁answered	-5799
▁détermin	-5800
▁passport	-5801
▁realized	-5802
▁résultat	-5803
▁résultats	-5804
▁véritable	-5805
▁entreprise	-5806
▁intéressée	-5807
▁misunderst	-5808
▁supplément	-5809
auc	-5810
eff	-5811
ivre	-5812
lons	-5813
nemi	-5814
okes	-5815
rige	-5816
Voyez	-5817
iable	-5818
icule	-5819
obile	-5820
ouvre	-5821
▁coun	-5822
▁huge	-5823
▁péri	-5824
▁text	-5825
ighted	-5826
▁Chine	-5827
▁Satur	-5828
▁barbe	-5829
▁deter	-5830
▁spect	-5831
▁techn	-5832
▁truck	-5833
▁écriv	-5834
assurer	-5835
feuille	-5836
énergie	-5837
▁cacher	-5838
▁camion	-5839
▁commis	-5840
▁devais	-5841
▁examen	-5842
▁mariés	-5843
▁partis	-5844
ervation	-5845
▁imagine	-5846
▁letters	-5847
▁oiseaux	-5848
▁document	-5849
▁voudriez	-5850
▁amoureuse	-5851
▁concerned	-5852
▁construit	-5853
▁passeport	-5854
▁bicyclette	-5855
▁collection	-5856
▁understood	-5857
▁débarrasser	-5858
▁instructions	-5859
▁portefeuille	-5860
ah	-5861
ama	-5862
eds	-5863
aman	-5864
gged	-5865
resp	-5866
▁100	-5867
▁due	-5868
isten	-5869
vered	-5870
▁Ital	-5871
▁clou	-5872
▁pisc	-5873
▁push	-5874
▁repe	-5875
▁sert	-5876
▁term	-5877
▁tiré	-5878
▁view	-5879
essaye	-5880
mother	-5881
▁album	-5882
▁avert	-5883
▁calls	-5884
▁climb	-5885
▁foule	-5886
▁occur	-5887
▁samed	-5888
▁siège	-5889
▁soupe	-5890
▁sœurs	-5891
▁tooth	-5892
▁épuis	-5893
jection	-5894
oublier	-5895
▁German	-5896
▁States	-5897
▁ailles	-5898
▁avance	-5899
▁entraî	-5900
attraper	-5901
▁accompl	-5902
▁chances	-5903
▁parlent	-5904
▁piscine	-5905
▁results	-5906
▁théorie	-5907
▁tremble	-5908
▁unhappy	-5909
embrasser	-5910
▁Saturday	-5911
▁embrassé	-5912
▁peinture	-5913
▁punished	-5914
entreprise	-5915
▁delighted	-5916
▁explosion	-5917
▁forgotten	-5918
▁japonaise	-5919
▁pretended	-5920
▁translate	-5921
acquisition	-5922
acy	-5923
ott	-5924
ubl	-5925
euse	-5926
inte	-5927
obby	-5928
quée	-5929
umée	-5930
▁cow	-5931
▁pon	-5932
▁sea	-5933
esses	-5934
lable	-5935
▁gold	-5936
▁lent	-5937
▁pool	-5938
▁rose	-5939
▁tenu	-5940
▁vidé	-5941
▁weak	-5942
Lequel	-5943
ercice	-5944
▁Watch	-5945
▁aimer	-5946
▁chick	-5947
▁couch	-5948
▁naive	-5949
▁psych	-5950
▁pénét	-5951
▁tiens	-5952
▁tough	-5953
▁usual	-5954
▁bouche	-5955
▁depend	-5956
▁descri	-5957
▁dishes	-5958
▁déjeun	-5959
▁except	-5960
▁incred	-5961
▁island	-5962
▁rendit	-5963
▁sports	-5964
▁voleur	-5965
▁échecs	-5966
▁écouté	-5967
▁étudie	-5968
▁covered	-5969
▁hearing	-5970
▁instead	-5971
▁kidding	-5972
▁pensent	-5973
▁smarter	-5974
▁sweater	-5975
▁donnerai	-5976
▁gentille	-5977
▁Yesterday	-5978
▁meilleurs	-5979
▁university	-5980
▁connaissait	-5981
Esp	-5982
Exc	-5983
Mal	-5984
aka	-5985
bye	-5986
oci	-5987
oya	-5988
tem	-5989
Sans	-5990
merg	-5991
orer	-5992
▁ben	-5993
▁dad	-5994
▁uns	-5995
asser	-5996
chons	-5997
hings	-5998
ibles	-5999
iture	-6000
outes	-6001
terre	-6002
ètres	-6003
▁With	-6004
▁argu	-6005
▁batt	-6006
▁bear	-6007
▁bisc	-6008
▁fume	-6009
▁heat	-6010
▁lave	-6011
Sortez	-6012
écoute	-6013
église	-6014
▁ended	-6015
▁prise	-6016
▁sharp	-6017
▁tenté	-6018
▁veste	-6019
Excusez	-6020
▁Things	-6021
▁départ	-6022
▁manage	-6023
▁silent	-6024
▁tastes	-6025
▁theory	-6026
▁dessert	-6027
▁détails	-6028
▁effectu	-6029
▁matters	-6030
▁speaker	-6031
▁contrari	-6032
▁prendrai	-6033
▁responsib	-6034
▁attractive	-6035
anniversaire	-6036
▁difficultés	-6037
▁embarrassed	-6038
île	-6039
▁Fu	-6040
▁aj	-6041
▁anx	-6042
▁eau	-6043
▁hér	-6044
▁née	-6045
▁squ	-6046
▁âgé	-6047
arriv	-6048
esome	-6049
ician	-6050
rimer	-6051
ystem	-6052
▁Nous	-6053
▁bleu	-6054
▁gars	-6055
▁ours	-6056
avenir	-6057
issait	-6058
▁auras	-6059
▁cache	-6060
▁cards	-6061
▁escal	-6062
▁skier	-6063
▁taste	-6064
▁venez	-6065
▁élevé	-6066
avaient	-6067
endroit	-6068
▁bright	-6069
▁double	-6070
▁envers	-6071
▁fascin	-6072
▁idiote	-6073
▁middle	-6074
▁précip	-6075
▁fassiez	-6076
▁forever	-6077
▁menteur	-6078
▁miracle	-6079
▁poursui	-6080
▁secrets	-6081
▁windows	-6082
▁assister	-6083
▁campagne	-6084
▁occupées	-6085
▁upstairs	-6086
▁veuilles	-6087
importance	-6088
▁abandonné	-6089
▁confident	-6090
▁connaisse	-6091
▁connaissez	-6092
▁circulation	-6093
▁différentes	-6094
gu	-6095
arr	-6096
ita	-6097
esit	-6098
onte	-6099
osen	-6100
reur	-6101
saka	-6102
▁Per	-6103
ancer	-6104
andis	-6105
aître	-6106
icate	-6107
▁amél	-6108
▁boit	-6109
▁créd	-6110
▁déce	-6111
▁king	-6112
▁pose	-6113
▁spot	-6114
▁step	-6115
▁tien	-6116
▁vint	-6117
▁état	-6118
Mettez	-6119
isions	-6120
overed	-6121
étudie	-6122
▁aurez	-6123
▁cheap	-6124
▁compt	-6125
▁event	-6126
▁faill	-6127
▁grimp	-6128
▁optim	-6129
▁serve	-6130
▁tombe	-6131
▁advant	-6132
▁alliez	-6133
▁améric	-6134
▁intend	-6135
▁orange	-6136
▁resign	-6137
▁saches	-6138
▁samedi	-6139
▁skiing	-6140
▁twenty	-6141
▁économ	-6142
▁boisson	-6143
▁divorce	-6144
▁managed	-6145
▁options	-6146
▁réalité	-6147
▁science	-6148
▁toucher	-6149
apprécier	-6150
intéresse	-6151
▁derniers	-6152
▁exercise	-6153
▁headache	-6154
▁préoccup	-6155
▁recently	-6156
▁ressembl	-6157
▁exhausted	-6158
information	-6159
▁suggestion	-6160
Jou	-6161
Nos	-6162
aqu	-6163
Sors	-6164
arme	-6165
▁Acc	-6166
▁Two	-6167
▁meu	-6168
▁typ	-6169
appro	-6170
hiver	-6171
ieved	-6172
▁avis	-6173
▁clos	-6174
▁diet	-6175
▁diss	-6176
▁drug	-6177
▁legs	-6178
▁poin	-6179
▁trac	-6180
illeux	-6181
▁Their	-6182
▁caché	-6183
▁names	-6184
▁oppos	-6185
▁prize	-6186
▁thief	-6187
astique	-6188
▁author	-6189
▁betray	-6190
▁chauff	-6191
▁contrô	-6192
▁conven	-6193
▁couver	-6194
▁devint	-6195
▁distur	-6196
▁econom	-6197
▁grandi	-6198
▁milieu	-6199
▁pierre	-6200
▁rejoin	-6201
▁tienne	-6202
▁washed	-6203
inquiète	-6204
▁amazing	-6205
▁arrivés	-6206
▁dancing	-6207
▁dommage	-6208
▁pretend	-6209
▁sisters	-6210
▁soldats	-6211
▁accepted	-6212
▁behavior	-6213
▁conscient	-6214
▁incapable	-6215
▁policeman	-6216
▁différente	-6217
▁grandmother	-6218
hés	-6219
ian	-6220
ify	-6221
igé	-6222
âge	-6223
èle	-6224
▁gh	-6225
Vois	-6226
iant	-6227
▁fab	-6228
▁gor	-6229
▁hom	-6230
▁mic	-6231
▁nap	-6232
▁sof	-6233
▁tar	-6234
abord	-6235
allez	-6236
anged	-6237
cteur	-6238
lling	-6239
▁avai	-6240
▁coût	-6241
▁détr	-6242
▁midi	-6243
▁quot	-6244
▁étoi	-6245
uction	-6246
▁Close	-6247
▁Terre	-6248
▁charm	-6249
▁finan	-6250
▁folle	-6251
▁hesit	-6252
▁judge	-6253
▁stock	-6254
▁chacun	-6255
▁jacket	-6256
▁losing	-6257
▁market	-6258
▁monter	-6259
▁oldest	-6260
▁origin	-6261
▁paying	-6262
▁pièces	-6263
▁poison	-6264
▁restée	-6265
▁system	-6266
▁toward	-6267
▁vivant	-6268
▁épouse	-6269
▁awesome	-6270
▁carried	-6271
▁pousser	-6272
▁similar	-6273
▁tourner	-6274
▁trusted	-6275
▁disputer	-6276
▁interest	-6277
▁progress	-6278
▁disposons	-6279
▁gentleman	-6280
▁traveling	-6281
▁possibility	-6282
In	-6283
Pré	-6284
inf	-6285
nic	-6286
uff	-6287
zen	-6288
▁CD	-6289
▁Sm	-6290
ttes	-6291
▁ham	-6292
▁ing	-6293
▁tap	-6294
apped	-6295
hered	-6296
illés	-6297
▁cred	-6298
▁lamp	-6299
▁régl	-6300
▁vues	-6301
angers	-6302
arante	-6303
▁causé	-6304
▁couru	-6305
▁diary	-6306
▁dying	-6307
▁dérou	-6308
▁incre	-6309
▁médec	-6310
▁parie	-6311
▁pique	-6312
▁prior	-6313
▁prove	-6314
▁sépar	-6315
▁tirer	-6316
Connais	-6317
Montrez	-6318
▁allées	-6319
▁coûter	-6320
▁faible	-6321
▁hoping	-6322
▁murder	-6323
▁navire	-6324
▁preuve	-6325
▁sortit	-6326
▁spends	-6327
▁unlike	-6328
accepter	-6329
▁capital	-6330
▁maisons	-6331
▁peindre	-6332
▁sympath	-6333
▁argument	-6334
▁arrivera	-6335
▁certains	-6336
▁policier	-6337
▁introduce	-6338
▁pardonner	-6339
▁earthquake	-6340
onf	-6341
▁Of	-6342
▁fâ	-6343
assi	-6344
espé	-6345
iale	-6346
ibat	-6347
rimé	-6348
▁iss	-6349
▁roi	-6350
▁wet	-6351
anges	-6352
eless	-6353
oigne	-6354
▁cash	-6355
▁clef	-6356
▁copy	-6357
▁demi	-6358
▁hire	-6359
▁mecs	-6360
▁remb	-6361
▁sinc	-6362
▁syst	-6363
entrée	-6364
ternet	-6365
▁Write	-6366
▁chère	-6367
▁fréqu	-6368
▁ghost	-6369
▁hobby	-6370
▁poche	-6371
▁raise	-6372
▁suppl	-6373
adresse	-6374
enfants	-6375
▁centre	-6376
▁compét	-6377
▁décida	-6378
▁moving	-6379
▁rumeur	-6380
▁tenait	-6381
▁atteint	-6382
▁bonheur	-6383
▁célibat	-6384
▁details	-6385
▁devenue	-6386
▁goodbye	-6387
▁obligée	-6388
▁protest	-6389
▁attitude	-6390
▁convient	-6391
▁ennuyeux	-6392
▁violence	-6393
▁advantage	-6394
▁available	-6395
▁ourselves	-6396
▁relations	-6397
▁abandonner	-6398
▁assistance	-6399
▁conditions	-6400
▁merveilleux	-6401
▁démissionner	-6402
azz	-6403
bri	-6404
esc	-6405
gal	-6406
key	-6407
nés	-6408
▁Op	-6409
,000	-6410
Deux	-6411
assé	-6412
eday	-6413
ieur	-6414
ngle	-6415
osse	-6416
▁lab	-6417
▁ras	-6418
erver	-6419
light	-6420
▁bass	-6421
▁hall	-6422
▁jume	-6423
▁laid	-6424
▁liqu	-6425
▁nuts	-6426
▁sofa	-6427
▁yens	-6428
ulaire	-6429
▁alarm	-6430
▁birds	-6431
▁costs	-6432
▁doigt	-6433
▁entré	-6434
▁games	-6435
▁hurts	-6436
▁postp	-6437
▁songé	-6438
▁third	-6439
Appelle	-6440
▁accusé	-6441
▁adoles	-6442
▁altern	-6443
▁assise	-6444
▁credit	-6445
▁dingue	-6446
▁easier	-6447
▁fermée	-6448
▁filled	-6449
▁jaloux	-6450
▁ponctu	-6451
▁punctu	-6452
▁sauter	-6453
▁violon	-6454
Aimeriez	-6455
▁blesser	-6456
▁dentist	-6457
▁devient	-6458
▁disting	-6459
▁imaginé	-6460
▁natural	-6461
▁staring	-6462
ngleterre	-6463
▁dentiste	-6464
▁electric	-6465
▁fenêtres	-6466
▁teachers	-6467
▁unlikely	-6468
▁comprenez	-6469
▁gentilles	-6470
▁laisserai	-6471
▁perfectly	-6472
▁réveiller	-6473
▁themselves	-6474
▁fonctionner	-6475
No	-6476
Ré	-6477
ks	-6478
Dès	-6479
▁pâ	-6480
ayed	-6481
cter	-6482
itôt	-6483
oney	-6484
ores	-6485
tiez	-6486
▁jug	-6487
arché	-6488
▁Fuji	-6489
▁inse	-6490
▁paie	-6491
▁pred	-6492
▁secr	-6493
▁sors	-6494
▁toit	-6495
Demain	-6496
▁crowd	-6497
▁disag	-6498
▁emerg	-6499
▁facts	-6500
▁hired	-6501
▁hiver	-6502
▁human	-6503
▁marre	-6504
▁reply	-6505
▁rumor	-6506
▁épous	-6507
Demande	-6508
épouser	-6509
▁Mother	-6510
▁anyway	-6511
▁burned	-6512
▁cercle	-6513
▁denied	-6514
▁disait	-6515
▁dispon	-6516
▁désesp	-6517
▁faudra	-6518
▁génial	-6519
▁laissa	-6520
▁petits	-6521
▁pleuré	-6522
▁qualif	-6523
▁régime	-6524
▁résolu	-6525
▁tandis	-6526
▁thirst	-6527
intéress	-6528
▁absence	-6529
▁contrat	-6530
▁effrayé	-6531
▁meurtre	-6532
▁parlons	-6533
▁reposer	-6534
▁système	-6535
▁traiter	-6536
ordinaire	-6537
▁biscuits	-6538
▁continué	-6539
▁contract	-6540
▁feuilles	-6541
▁mignonne	-6542
▁soldiers	-6543
▁stranger	-6544
▁teaching	-6545
▁organized	-6546
▁clairement	-6547
▁informations	-6548
▁intelligente	-6549
do	-6550
ok	-6551
Enf	-6552
den	-6553
emm	-6554
reg	-6555
▁By	-6556
▁os	-6557
Quit	-6558
aded	-6559
aule	-6560
icie	-6561
quip	-6562
ètes	-6563
▁equ	-6564
▁fie	-6565
▁gaz	-6566
agers	-6567
coute	-6568
icked	-6569
▁bott	-6570
▁ears	-6571
▁ille	-6572
▁juge	-6573
▁race	-6574
alcool	-6575
habite	-6576
romise	-6577
ulance	-6578
▁annon	-6579
▁attir	-6580
▁becom	-6581
▁brisé	-6582
▁cents	-6583
▁exemp	-6584
▁gives	-6585
▁influ	-6586
▁sales	-6587
▁tells	-6588
▁threw	-6589
▁video	-6590
▁appear	-6591
▁attemp	-6592
▁cassée	-6593
▁consul	-6594
▁intern	-6595
▁jambes	-6596
▁rained	-6597
▁saviez	-6598
▁sentis	-6599
▁stress	-6600
▁unless	-6601
▁vaisse	-6602
Continue	-6603
▁descend	-6604
▁projets	-6605
▁reconnu	-6606
▁répéter	-6607
▁concentr	-6608
▁fatigués	-6609
▁impliqué	-6610
▁pareille	-6611
▁semblant	-6612
▁viendrai	-6613
▁viennent	-6614
▁accidents	-6615
▁découvrir	-6616
▁personnel	-6617
▁suggested	-6618
▁supermark	-6619
▁toilettes	-6620
▁voulaient	-6621
▁étrangère	-6622
▁appartient	-6623
▁rencontrée	-6624
▁complicated	-6625
▁confectionné	-6626
▁impressionné	-6627
Fin	-6628
Ver	-6629
ami	-6630
bon	-6631
gré	-6632
ike	-6633
imm	-6634
mat	-6635
▁Gu	-6636
inet	-6637
inze	-6638
ohol	-6639
uyer	-6640
▁dév	-6641
▁lap	-6642
▁yes	-6643
Faire	-6644
acted	-6645
agère	-6646
bable	-6647
▁Good	-6648
▁Last	-6649
▁Open	-6650
▁Vous	-6651
▁alla	-6652
▁arms	-6653
▁bell	-6654
▁diam	-6655
▁hous	-6656
▁loss	-6657
▁maig	-6658
▁mass	-6659
▁roof	-6660
▁size	-6661
Voyons	-6662
allons	-6663
amuser	-6664
arvard	-6665
ateful	-6666
atives	-6667
entraî	-6668
▁Osaka	-6669
▁accro	-6670
▁accus	-6671
▁fantô	-6672
▁surve	-6673
▁vidéo	-6674
cemment	-6675
itation	-6676
ussitôt	-6677
▁artist	-6678
▁belles	-6679
▁butter	-6680
▁dirige	-6681
▁highly	-6682
▁points	-6683
▁quotid	-6684
▁sentez	-6685
▁suffit	-6686
▁tourne	-6687
exercice	-6688
indiquer	-6689
▁England	-6690
▁answers	-6691
▁contrar	-6692
▁croyais	-6693
▁destroy	-6694
▁gunshot	-6695
▁mission	-6696
▁prouver	-6697
▁retirer	-6698
▁veuille	-6699
▁accustom	-6700
▁believes	-6701
▁expliqué	-6702
▁grateful	-6703
▁imaginer	-6704
▁poissons	-6705
▁punctual	-6706
▁terminée	-6707
▁traversé	-6708
▁emergency	-6709
▁programme	-6710
▁supermarché	-6711
▁supermarket	-6712
▁profondément	-6713
éh	-6714
anse	-6715
cens	-6716
honn	-6717
ices	-6718
idez	-6719
isme	-6720
nant	-6721
ters	-6722
▁edu	-6723
▁fal	-6724
▁fan	-6725
Celui	-6726
acité	-6727
ashed	-6728
assit	-6729
night	-6730
sière	-6731
▁bull	-6732
▁cong	-6733
▁coop	-6734
▁cops	-6735
▁drog	-6736
▁fain	-6737
▁noon	-6738
▁poll	-6739
Fermez	-6740
arrête	-6741
emploi	-6742
icieux	-6743
▁above	-6744
▁cheer	-6745
▁dises	-6746
▁email	-6747
▁fixed	-6748
▁grass	-6749
▁remis	-6750
▁voyez	-6751
▁wears	-6752
▁bouger	-6753
▁fairly	-6754
▁pantal	-6755
▁picnic	-6756
▁sommet	-6757
▁traite	-6758
▁verrai	-6759
▁écoute	-6760
▁Perhaps	-6761
▁asseoir	-6762
▁chicken	-6763
▁failure	-6764
▁général	-6765
▁oublier	-6766
▁suicide	-6767
▁survive	-6768
▁thirsty	-6769
▁appropri	-6770
▁détendre	-6771
▁promener	-6772
▁resterai	-6773
▁shoulder	-6774
▁supporte	-6775
▁populaire	-6776
▁puissions	-6777
▁changement	-6778
▁couramment	-6779
▁downstairs	-6780
▁improbable	-6781
▁introduced	-6782
▁examination	-6783
▁comportement	-6784
ox	-6785
Rem	-6786
ene	-6787
lit	-6788
èse	-6789
▁Ex	-6790
▁lè	-6791
ners	-6792
rees	-6793
âtre	-6794
érée	-6795
▁Unf	-6796
▁dig	-6797
▁foc	-6798
▁lay	-6799
▁mec	-6800
▁obé	-6801
▁reç	-6802
Chois	-6803
Tiens	-6804
arrêt	-6805
omach	-6806
onses	-6807
▁Comp	-6808
▁Shut	-6809
▁circ	-6810
▁fich	-6811
▁furn	-6812
▁goal	-6813
▁lies	-6814
▁noms	-6815
▁plat	-6816
▁poup	-6817
▁soif	-6818
▁voie	-6819
issons	-6820
perate	-6821
économ	-6822
▁distr	-6823
▁doors	-6824
▁envis	-6825
▁fever	-6826
▁futur	-6827
▁kinds	-6828
▁meals	-6829
▁miles	-6830
▁porté	-6831
▁poème	-6832
▁vendu	-6833
▁woods	-6834
▁jumped	-6835
▁mathém	-6836
▁mignon	-6837
▁useful	-6838
▁within	-6839
▁checked	-6840
▁clearly	-6841
▁occuper	-6842
▁pouviez	-6843
▁stomach	-6844
▁survenu	-6845
▁Internet	-6846
▁Whatever	-6847
▁bathroom	-6848
▁critique	-6849
▁pleasure	-6850
▁présente	-6851
▁remained	-6852
▁réponses	-6853
▁étranger	-6854
▁Americans	-6855
▁apprécier	-6856
▁accustomed	-6857
▁concentrer	-6858
▁magnifique	-6859
▁photograph	-6860
▁Unfortunately	-6861
▁ow	-6862
erly	-6863
icer	-6864
olée	-6865
èter	-6866
▁Day	-6867
▁Fri	-6868
▁cla	-6869
agner	-6870
aimez	-6871
board	-6872
enser	-6873
lique	-6874
mêmes	-6875
onnée	-6876
orent	-6877
▁cast	-6878
▁posa	-6879
▁runs	-6880
▁stam	-6881
▁stat	-6882
▁webs	-6883
▁whis	-6884
▁élev	-6885
Parlez	-6886
endorm	-6887
ximité	-6888
▁acted	-6889
▁coupé	-6890
▁garer	-6891
▁guide	-6892
▁merci	-6893
▁mondi	-6894
▁naked	-6895
▁prêté	-6896
▁rejet	-6897
Parfois	-6898
agement	-6899
aujourd	-6900
onnable	-6901
▁arriva	-6902
▁barely	-6903
▁crédit	-6904
▁désire	-6905
▁joueur	-6906
▁leader	-6907
▁moteur	-6908
▁ordres	-6909
▁refusa	-6910
▁trompé	-6911
▁veniez	-6912
ducation	-6913
▁artiste	-6914
▁depends	-6915
▁ferions	-6916
▁neither	-6917
▁passion	-6918
▁retired	-6919
▁timbres	-6920
▁apprécie	-6921
▁borrowed	-6922
▁chanteur	-6923
▁sérieuse	-6924
▁traduire	-6925
Connaissez	-6926
▁contrôler	-6927
▁delicious	-6928
▁insurance	-6929
▁prisoners	-6930
▁proximité	-6931
▁everywhere	-6932
▁frightened	-6933
▁importance	-6934
▁malheureux	-6935
▁totalement	-6936
▁possibilité	-6937
▁neighborhood	-6938
▁mathématiques	-6939
pa	-6940
llo	-6941
▁Dr	-6942
▁ug	-6943
aign	-6944
asun	-6945
atif	-6946
orre	-6947
pper	-6948
▁blâ	-6949
▁bud	-6950
▁tur	-6951
Crois	-6952
atoes	-6953
champ	-6954
istre	-6955
rants	-6956
▁amen	-6957
▁beur	-6958
▁cele	-6959
▁exch	-6960
▁froi	-6961
▁ivre	-6962
▁jail	-6963
▁jeux	-6964
▁lune	-6965
▁pill	-6966
▁rese	-6967
▁ugly	-6968
▁viré	-6969
▁wore	-6970
ically	-6971
▁airpl	-6972
▁ayons	-6973
▁brush	-6974
▁fiers	-6975
▁guère	-6976
▁monté	-6977
▁speed	-6978
▁steak	-6979
▁étage	-6980
▁Father	-6981
▁Friday	-6982
▁caisse	-6983
▁closer	-6984
▁compet	-6985
▁copain	-6986
▁ground	-6987
▁guests	-6988
▁humeur	-6989
▁insist	-6990
▁membre	-6991
▁minuit	-6992
▁planté	-6993
▁restes	-6994
▁salary	-6995
▁slight	-6996
▁solved	-6997
▁unable	-6998
▁venues	-6999
Malheure	-7000
itutrice	-7001
▁Harvard	-7002
▁belongs	-7003
▁disease	-7004
▁déjeuné	-7005
▁example	-7006
▁nourrir	-7007
▁request	-7008
▁sentais	-7009
▁treated	-7010
▁Amérique	-7011
▁Japonais	-7012
▁démarrer	-7013
▁enseigne	-7014
▁journaux	-7015
▁offended	-7016
▁voudrait	-7017
▁abandoned	-7018
▁childhood	-7019
▁happiness	-7020
▁promesses	-7021
▁récemment	-7022
▁étrangers	-7023
▁difficiles	-7024
Malheureusement	-7025
▁reconnaissante	-7026
▁responsibility	-7027
Jam	-7028
oût	-7029
ram	-7030
uré	-7031
âce	-7032
▁Tr	-7033
▁aî	-7034
▁câ	-7035
ancé	-7036
cles	-7037
ugle	-7038
urse	-7039
▁Mar	-7040
▁gal	-7041
▁nea	-7042
▁nor	-7043
▁rét	-7044
Entre	-7045
Tenez	-7046
cohol	-7047
nique	-7048
ology	-7049
ouill	-7050
riage	-7051
rices	-7052
uteur	-7053
▁adul	-7054
▁area	-7055
▁code	-7056
▁hung	-7057
▁monn	-7058
▁moqu	-7059
▁pous	-7060
▁racc	-7061
▁rely	-7062
Jamais	-7063
espoir	-7064
icient	-7065
itaire	-7066
ologie	-7067
venues	-7068
▁apply	-7069
▁coûté	-7070
▁drown	-7071
▁effic	-7072
▁foods	-7073
▁haute	-7074
▁ident	-7075
▁jokes	-7076
▁local	-7077
▁mayor	-7078
▁motiv	-7079
▁nurse	-7080
▁shape	-7081
▁style	-7082
▁dating	-7083
▁finger	-7084
▁fièvre	-7085
▁parked	-7086
▁perdit	-7087
▁permit	-7088
▁pocket	-7089
▁repair	-7090
▁smells	-7091
▁smiled	-7092
▁sortes	-7093
incendie	-7094
▁cleaned	-7095
▁crossed	-7096
▁culture	-7097
▁dépensé	-7098
▁illegal	-7099
▁laissée	-7100
▁nearest	-7101
▁perform	-7102
▁raisons	-7103
▁souffre	-7104
▁wasting	-7105
▁winning	-7106
▁aliments	-7107
▁betrayed	-7108
▁enjoying	-7109
▁exciting	-7110
▁habitude	-7111
▁investig	-7112
▁occurred	-7113
▁parvenir	-7114
▁promises	-7115
▁vendredi	-7116
▁whenever	-7117
▁cigarette	-7118
▁vaisselle	-7119
▁complained	-7120
▁difficulty	-7121
▁destination	-7122
▁temperature	-7123
▁responsabilité	-7124
cky	-7125
ism	-7126
off	-7127
raw	-7128
▁De	-7129
▁dy	-7130
▁ja	-7131
anic	-7132
oted	-7133
ouvé	-7134
rain	-7135
ular	-7136
uler	-7137
▁Say	-7138
▁ded	-7139
▁dry	-7140
▁lif	-7141
▁rab	-7142
▁sup	-7143
Passe	-7144
aired	-7145
chose	-7146
icted	-7147
inite	-7148
ombre	-7149
ueill	-7150
érant	-7151
▁Hand	-7152
▁aill	-7153
▁dare	-7154
▁desp	-7155
▁elev	-7156
▁gren	-7157
▁lift	-7158
▁négl	-7159
▁teen	-7160
Gardez	-7161
avance	-7162
étaire	-7163
▁beaux	-7164
▁danse	-7165
▁déçue	-7166
▁gramm	-7167
▁hated	-7168
▁intim	-7169
▁lourd	-7170
▁loyer	-7171
▁sauvé	-7172
▁space	-7173
▁using	-7174
essence	-7175
▁accent	-7176
▁beurre	-7177
▁chosen	-7178
▁coffre	-7179
▁courte	-7180
▁drives	-7181
▁déprim	-7182
▁entier	-7183
▁incomp	-7184
▁orders	-7185
▁prices	-7186
▁propri	-7187
▁pushed	-7188
▁raised	-7189
▁remain	-7190
▁remark	-7191
▁rendue	-7192
▁spread	-7193
▁stamps	-7194
▁strict	-7195
▁tempér	-7196
▁éteint	-7197
Aimerais	-7198
espérais	-7199
éteindre	-7200
▁Sundays	-7201
▁ability	-7202
▁arguing	-7203
▁aveugle	-7204
▁climbed	-7205
▁collect	-7206
▁couvert	-7207
▁discuté	-7208
▁hurried	-7209
▁membres	-7210
▁plantes	-7211
▁smaller	-7212
▁suivant	-7213
▁careless	-7214
▁courrier	-7215
▁demandez	-7216
▁divorced	-7217
▁lumières	-7218
▁persuade	-7219
▁pouvions	-7220
▁pressure	-7221
▁prudents	-7222
▁puissiez	-7223
▁rembours	-7224
▁spending	-7225
▁assistant	-7226
▁contacter	-7227
▁furniture	-7228
▁recommend	-7229
▁succeeded	-7230
instituteur	-7231
▁impatiente	-7232
▁recognized	-7233
▁quotidienne	-7234
▁souhaiterais	-7235
▁misunderstand	-7236
eus	-7237
iés	-7238
rat	-7239
rif	-7240
ril	-7241
tud	-7242
▁Pl	-7243
▁Sw	-7244
▁gê	-7245
Leur	-7246
Oubl	-7247
ases	-7248
elon	-7249
ivez	-7250
oiff	-7251
rise	-7252
rure	-7253
▁Che	-7254
▁civ	-7255
▁lat	-7256
▁oil	-7257
▁saf	-7258
autor	-7259
chiez	-7260
iquée	-7261
lever	-7262
uelle	-7263
verse	-7264
▁From	-7265
▁Quit	-7266
▁Rome	-7267
▁bran	-7268
▁déch	-7269
▁enqu	-7270
▁fous	-7271
▁hill	-7272
▁jazz	-7273
▁mett	-7274
▁ones	-7275
▁pond	-7276
Chacun	-7277
achète	-7278
ording	-7279
ources	-7280
quante	-7281
▁allum	-7282
▁chall	-7283
▁chand	-7284
▁fence	-7285
▁flics	-7286
▁gardé	-7287
▁image	-7288
▁model	-7289
▁queue	-7290
▁resta	-7291
▁éloig	-7292
ortable	-7293
▁Canada	-7294
▁attach	-7295
▁batter	-7296
▁celebr	-7297
▁cheese	-7298
▁flower	-7299
▁lovely	-7300
▁manges	-7301
▁mangez	-7302
▁pulled	-7303
▁violin	-7304
▁volume	-7305
Quelques	-7306
échapper	-7307
▁appelle	-7308
▁blessés	-7309
▁clients	-7310
▁complex	-7311
▁disposé	-7312
▁distrib	-7313
▁données	-7314
▁exemple	-7315
▁facture	-7316
▁foolish	-7317
▁impress	-7318
▁inutile	-7319
▁touched	-7320
▁midnight	-7321
▁pantalon	-7322
▁practice	-7323
▁vieilles	-7324
▁According	-7325
▁ambulance	-7326
▁classroom	-7327
▁contrarié	-7328
▁documents	-7329
▁interrupt	-7330
▁serviette	-7331
▁spectacle	-7332
▁tradition	-7333
▁cigarettes	-7334
▁volontaire	-7335
▁yourselves	-7336
▁connaissais	-7337
▁célibataire	-7338
▁enseignante	-7339
▁température	-7340
▁tremblement	-7341
Dé	-7342
Moi	-7343
zzy	-7344
éro	-7345
aces	-7346
amél	-7347
aved	-7348
cked	-7349
omac	-7350
ones	-7351
uves	-7352
word	-7353
▁Few	-7354
▁Sit	-7355
▁goû	-7356
▁rig	-7357
allow	-7358
appel	-7359
eures	-7360
tered	-7361
▁Mars	-7362
▁bite	-7363
▁crai	-7364
▁dame	-7365
▁incl	-7366
▁iron	-7367
▁none	-7368
▁scar	-7369
▁thin	-7370
▁visa	-7371
Retour	-7372
auriez	-7373
avions	-7374
érence	-7375
▁amour	-7376
▁badly	-7377
▁faite	-7378
▁gorge	-7379
▁longs	-7380
▁negot	-7381
▁ravie	-7382
▁saoul	-7383
▁scare	-7384
▁seats	-7385
▁tomba	-7386
▁égard	-7387
irmière	-7388
▁allong	-7389
▁avenir	-7390
▁corner	-7391
▁damage	-7392
▁forces	-7393
▁handed	-7394
▁houses	-7395
▁indust	-7396
▁offert	-7397
▁partit	-7398
▁plaint	-7399
▁pleure	-7400
▁pressé	-7401
▁quinze	-7402
▁époque	-7403
▁amélior	-7404
▁curieux	-7405
▁drowned	-7406
▁déprimé	-7407
▁express	-7408
▁fromage	-7409
▁ignored	-7410
▁mangent	-7411
▁members	-7412
▁monnaie	-7413
▁parcour	-7414
▁petites	-7415
▁ridicul	-7416
▁workers	-7417
▁disposer	-7418
▁habituée	-7419
▁nerveuse	-7420
▁partager	-7421
▁pleasant	-7422
▁repaired	-7423
▁retourne	-7424
▁soudaine	-7425
▁worrying	-7426
ordinateur	-7427
▁certaines	-7428
▁compliqué	-7429
▁merveille	-7430
▁obviously	-7431
▁plaisanter	-7432
▁travaillent	-7433
mi	-7434
arc	-7435
aud	-7436
nom	-7437
uls	-7438
▁hi	-7439
ades	-7440
osez	-7441
oust	-7442
éche	-7443
élic	-7444
▁Spe	-7445
▁boi	-7446
▁mel	-7447
▁pal	-7448
▁wit	-7449
Jusqu	-7450
Selon	-7451
ening	-7452
euble	-7453
ignit	-7454
ining	-7455
oient	-7456
ounds	-7457
posez	-7458
étude	-7459
▁aunt	-7460
▁banc	-7461
▁bomb	-7462
▁céré	-7463
▁donn	-7464
▁dépê	-7465
▁forc	-7466
▁oper	-7467
▁poig	-7468
▁sage	-7469
▁soft	-7470
▁traî	-7471
▁élég	-7472
Cessez	-7473
aimais	-7474
▁crain	-7475
▁creat	-7476
▁dizzy	-7477
▁insul	-7478
▁jeans	-7479
▁parmi	-7480
▁proof	-7481
▁rater	-7482
▁rempl	-7483
▁rompu	-7484
▁separ	-7485
Parlons	-7486
censeur	-7487
▁failli	-7488
▁frustr	-7489
▁lately	-7490
▁master	-7491
▁ruined	-7492
▁safety	-7493
▁sentie	-7494
▁servir	-7495
▁social	-7496
▁souper	-7497
▁source	-7498
▁stairs	-7499
▁touche	-7500
▁visité	-7501
▁writer	-7502
▁yellow	-7503
▁advance	-7504
▁alcohol	-7505
▁justice	-7506
▁planned	-7507
▁puisses	-7508
▁relaxed	-7509
▁ressens	-7510
enseigner	-7511
▁airplane	-7512
▁audience	-7513
▁deuxième	-7514
▁dépêcher	-7515
▁elevator	-7516
▁entendue	-7517
▁environs	-7518
▁parfaite	-7519
▁présenté	-7520
▁sensible	-7521
▁talented	-7522
appellerai	-7523
▁atteindre	-7524
▁descendre	-7525
▁persuaded	-7526
▁suffisant	-7527
▁wondering	-7528
▁dérangerait	-7529
▁rencontrées	-7530
Hé	-7531
Ass	-7532
tée	-7533
Asse	-7534
Desc	-7535
iest	-7536
opin	-7537
▁bow	-7538
▁gym	-7539
▁hug	-7540
▁tat	-7541
▁van	-7542
Parle	-7543
ageux	-7544
ption	-7545
▁Germ	-7546
▁blag	-7547
▁déro	-7548
▁empê	-7549
▁farm	-7550
▁fash	-7551
▁grab	-7552
▁hero	-7553
▁loan	-7554
▁mons	-7555
▁nons	-7556
▁pity	-7557
▁puzz	-7558
▁stun	-7559
▁unus	-7560
issant	-7561
rently	-7562
étique	-7563
▁Doing	-7564
▁Three	-7565
▁alent	-7566
▁brief	-7567
▁burst	-7568
▁coups	-7569
▁désir	-7570
▁exist	-7571
▁final	-7572
▁forêt	-7573
▁greet	-7574
▁illég	-7575
▁issue	-7576
▁léger	-7577
▁poker	-7578
▁rende	-7579
▁shelf	-7580
▁tante	-7581
▁terme	-7582
▁usage	-7583
Devrais	-7584
▁auprès	-7585
▁cesser	-7586
▁chatte	-7587
▁disiez	-7588
▁joking	-7589
▁limite	-7590
▁mortes	-7591
▁ouvrit	-7592
▁retire	-7593
▁season	-7594
▁served	-7595
▁tiroir	-7596
▁vivons	-7597
▁énorme	-7598
aissance	-7599
utiliser	-7600
▁Neither	-7601
▁anxious	-7602
▁arrière	-7603
▁confess	-7604
▁enfance	-7605
▁falling	-7606
▁invitée	-7607
▁passait	-7608
▁progrès	-7609
▁refuser	-7610
▁remarqu	-7611
▁rentrée	-7612
▁renvers	-7613
▁someday	-7614
▁souffle	-7615
▁utilisé	-7616
▁évident	-7617
interromp	-7618
▁aimerais	-7619
▁capitale	-7620
▁confront	-7621
▁determin	-7622
▁disagree	-7623
▁efficace	-7624
▁entirely	-7625
▁présence	-7626
▁signific	-7627
▁tendance	-7628
▁veuillez	-7629
▁wherever	-7630
▁continued	-7631
▁dernières	-7632
▁education	-7633
▁prevented	-7634
▁rappelles	-7635
▁rejoindre	-7636
▁surprises	-7637
▁difficulté	-7638
▁eventually	-7639
▁suspicious	-7640
▁travailles	-7641
aî	-7642
bb	-7643
go	-7644
add	-7645
eté	-7646
ibi	-7647
isa	-7648
oom	-7649
oue	-7650
réh	-7651
uch	-7652
Prom	-7653
aled	-7654
iqua	-7655
mped	-7656
oyal	-7657
oyée	-7658
phab	-7659
tais	-7660
éder	-7661
▁Ind	-7662
▁War	-7663
▁aid	-7664
▁smo	-7665
Avant	-7666
Toute	-7667
asons	-7668
cause	-7669
iants	-7670
ledge	-7671
ongue	-7672
xante	-7673
▁army	-7674
▁boug	-7675
▁bête	-7676
▁cere	-7677
▁dors	-7678
▁furi	-7679
▁mode	-7680
▁méth	-7681
▁neck	-7682
▁pale	-7683
▁patr	-7684
▁phys	-7685
▁unif	-7686
▁ways	-7687
Passez	-7688
aiment	-7689
ennemi	-7690
ension	-7691
entrer	-7692
humeur	-7693
▁adult	-7694
▁bague	-7695
▁crack	-7696
▁crise	-7697
▁héros	-7698
▁manif	-7699
▁stars	-7700
▁state	-7701
▁tenue	-7702
▁towel	-7703
lection	-7704
▁Choose	-7705
▁action	-7706
▁auquel	-7707
▁beauté	-7708
▁courut	-7709
▁disput	-7710
▁froide	-7711
▁invite	-7712
▁montra	-7713
▁nuages	-7714
▁pieces	-7715
▁poches	-7716
▁saison	-7717
▁settle	-7718
▁skinny	-7719
▁telles	-7720
▁tongue	-7721
▁treize	-7722
▁writes	-7723
Disposez	-7724
▁Without	-7725
▁allions	-7726
▁complet	-7727
▁examens	-7728
▁fashion	-7729
▁frapper	-7730
▁nowhere	-7731
▁parlait	-7732
▁rendrai	-7733
▁reviens	-7734
▁réalisé	-7735
▁approach	-7736
▁cleaning	-7737
▁conduite	-7738
▁empêcher	-7739
▁enseigné	-7740
▁evidence	-7741
▁préfères	-7742
▁remonter	-7743
▁semblent	-7744
▁commettre	-7745
▁escaliers	-7746
▁exception	-7747
▁innocence	-7748
▁retrouver	-7749
▁réveillée	-7750
▁recommandé	-7751
▁chaussettes	-7752
..	-7753
▁i	-7754
Lui	-7755
lex	-7756
oli	-7757
▁US	-7758
▁cy	-7759
▁mê	-7760
▁od	-7761
erté	-7762
unch	-7763
▁fog	-7764
Cesse	-7765
améli	-7766
aviez	-7767
bling	-7768
erves	-7769
hemat	-7770
ifier	-7771
rance	-7772
renez	-7773
écris	-7774
étage	-7775
▁Only	-7776
▁Time	-7777
▁bais	-7778
▁bond	-7779
▁carp	-7780
▁drag	-7781
▁merc	-7782
▁serp	-7783
Croyez	-7784
aments	-7785
crivez	-7786
phants	-7787
toires	-7788
▁Water	-7789
▁bleue	-7790
▁conte	-7791
▁coupe	-7792
▁estim	-7793
▁malch	-7794
▁mêmes	-7795
▁pharm	-7796
▁round	-7797
▁récup	-7798
▁sable	-7799
▁scene	-7800
▁toile	-7801
▁vague	-7802
▁échec	-7803
achèter	-7804
urgence	-7805
étagère	-7806
▁School	-7807
▁advise	-7808
▁amount	-7809
▁amusée	-7810
▁desert	-7811
▁découv	-7812
▁décédé	-7813
▁fallen	-7814
▁forest	-7815
▁member	-7816
▁option	-7817
▁poupée	-7818
▁prepar	-7819
▁rarely	-7820
▁search	-7821
▁traité	-7822
▁wealth	-7823
Essayons	-7824
llemagne	-7825
▁billets	-7826
▁confond	-7827
▁employe	-7828
▁hôpital	-7829
▁illness	-7830
▁parking	-7831
▁percent	-7832
▁sachiez	-7833
▁selling	-7834
▁studies	-7835
▁surface	-7836
▁teaches	-7837
▁théâtre	-7838
▁trouvée	-7839
oublierai	-7840
▁ailleurs	-7841
▁capables	-7842
▁demanded	-7843
▁oreilles	-7844
▁répondit	-7845
▁traveled	-7846
▁bienvenue	-7847
▁graduated	-7848
▁histoires	-7849
▁prudentes	-7850
▁regretter	-7851
▁friendship	-7852
▁participer	-7853
▁possession	-7854
▁instituteur	-7855
▁médicaments	-7856
▁augmentation	-7857
hy	-7858
abl	-7859
ius	-7860
▁Ar	-7861
chés	-7862
irts	-7863
ngth	-7864
rime	-7865
udes	-7866
▁App	-7867
▁Est	-7868
▁cad	-7869
▁dor	-7870
▁gel	-7871
▁mys	-7872
▁odd	-7873
▁rat	-7874
▁voc	-7875
▁véh	-7876
anced	-7877
apers	-7878
illon	-7879
mbers	-7880
ounce	-7881
êteté	-7882
▁Face	-7883
▁caus	-7884
▁douz	-7885
▁dîné	-7886
▁host	-7887
▁jobs	-7888
▁lavé	-7889
▁leva	-7890
▁menu	-7891
▁renv	-7892
▁rôle	-7893
▁site	-7894
▁égal	-7895
Sommes	-7896
ricité	-7897
époque	-7898
▁absor	-7899
▁armes	-7900
▁assum	-7901
▁awful	-7902
▁brown	-7903
▁coiff	-7904
▁copie	-7905
▁crème	-7906
▁drove	-7907
▁décéd	-7908
▁false	-7909
▁fumée	-7910
▁guard	-7911
▁génie	-7912
▁joues	-7913
▁moque	-7914
▁natif	-7915
▁overc	-7916
▁passa	-7917
▁pêche	-7918
▁rough	-7919
▁scold	-7920
▁skill	-7921
▁tarte	-7922
▁whose	-7923
▁écras	-7924
Apporte	-7925
ational	-7926
erreurs	-7927
ifiques	-7928
oreille	-7929
▁budget	-7930
▁clouds	-7931
▁congés	-7932
▁depart	-7933
▁diplom	-7934
▁excité	-7935
▁jouait	-7936
▁maître	-7937
▁neiger	-7938
▁poster	-7939
▁rempli	-7940
▁épousé	-7941
apporter	-7942
▁Germany	-7943
▁aurions	-7944
▁blanche	-7945
▁colline	-7946
▁contest	-7947
▁financi	-7948
▁improve	-7949
▁inhabit	-7950
▁pourrai	-7951
▁shorter	-7952
▁stories	-7953
▁éveillé	-7954
attendrai	-7955
attention	-7956
▁adorable	-7957
▁appeared	-7958
▁ceinture	-7959
▁criminal	-7960
▁dreaming	-7961
▁emprunté	-7962
▁experien	-7963
▁familier	-7964
▁fassions	-7965
▁password	-7966
▁produits	-7967
▁relation	-7968
▁reliable	-7969
▁strength	-7970
▁survived	-7971
▁committed	-7972
▁cuisinier	-7973
▁discussed	-7974
▁fatiguées	-7975
▁magazines	-7976
▁persuader	-7977
▁respecter	-7978
▁suffering	-7979
▁étudiante	-7980
▁différents	-7981
▁disponible	-7982
▁travaillez	-7983
▁gentillesse	-7984
▁understands	-7985
It	-7986
ias	-7987
law	-7988
mis	-7989
anou	-7990
atis	-7991
icip	-7992
ific	-7993
lant	-7994
mand	-7995
pock	-7996
èche	-7997
▁Sud	-7998
▁dén	-7999
▁joy	-8000
▁pét	-8001
▁rug	-8002
angez	-8003
cents	-8004
chent	-8005
ified	-8006
usion	-8007
viens	-8008
âteau	-8009
étiez	-8010
▁bruy	-8011
▁béné	-8012
▁caut	-8013
▁debt	-8014
▁gain	-8015
▁géné	-8016
▁meas	-8017
▁myst	-8018
▁pneu	-8019
▁puni	-8020
▁shoe	-8021
▁âgée	-8022
arrêta	-8023
engers	-8024
ential	-8025
illées	-8026
orrect	-8027
pected	-8028
usting	-8029
▁Russi	-8030
▁activ	-8031
▁beard	-8032
▁blank	-8033
▁bleed	-8034
▁cessé	-8035
▁débat	-8036
▁désor	-8037
▁entra	-8038
▁field	-8039
▁goods	-8040
▁knock	-8041
▁leçon	-8042
▁loupé	-8043
▁mente	-8044
▁moust	-8045
▁parte	-8046
▁screw	-8047
▁spell	-8048
▁taxes	-8049
assembl	-8050
utation	-8051
▁beauty	-8052
▁begins	-8053
▁cancel	-8054
▁chanté	-8055
▁deeply	-8056
▁détail	-8057
▁essaie	-8058
▁frappa	-8059
▁modern	-8060
▁paquet	-8061
▁restez	-8062
▁romant	-8063
▁souris	-8064
▁touché	-8065
▁victim	-8066
Espérons	-8067
hematics	-8068
issement	-8069
économie	-8070
▁actions	-8071
▁brouill	-8072
▁captain	-8073
▁challen	-8074
▁deviner	-8075
▁knowing	-8076
▁respond	-8077
▁risques	-8078
▁smiling	-8079
▁soudain	-8080
▁theater	-8081
▁trouves	-8082
▁viennes	-8083
▁wounded	-8084
▁échappé	-8085
inquiéter	-8086
▁Pourquoi	-8087
▁blessées	-8088
▁contents	-8089
▁election	-8090
▁marriage	-8091
▁mondiale	-8092
▁poursuiv	-8093
▁pression	-8094
▁quartier	-8095
▁rappelez	-8096
▁recevoir	-8097
▁relieved	-8098
▁stealing	-8099
abandonner	-8100
▁ambitious	-8101
▁autorisée	-8102
▁autorisés	-8103
▁chanceuse	-8104
▁cinquante	-8105
▁consulter	-8106
▁embrasser	-8107
▁interromp	-8108
▁acceptable	-8109
▁conférence	-8110
▁passengers	-8111
apprécierais	-8112
▁connaissent	-8113
▁connaissons	-8114
▁prisonniers	-8115
▁raisonnable	-8116
▁quotidiennement	-8117
bs	-8118
cue	-8119
enu	-8120
mos	-8121
osé	-8122
tee	-8123
▁Qu	-8124
▁Sc	-8125
▁nô	-8126
Cher	-8127
aler	-8128
cean	-8129
chau	-8130
cket	-8131
eras	-8132
fond	-8133
ibly	-8134
illy	-8135
look	-8136
ompe	-8137
tons	-8138
uste	-8139
▁Cle	-8140
▁Eat	-8141
▁Hav	-8142
▁Mex	-8143
▁lav	-8144
▁rit	-8145
▁tit	-8146
ality	-8147
ignez	-8148
ipped	-8149
irurg	-8150
lacer	-8151
lucky	-8152
monie	-8153
tress	-8154
velop	-8155
▁Once	-8156
▁dece	-8157
▁dumb	-8158
▁enth	-8159
▁exag	-8160
▁firm	-8161
▁hole	-8162
▁inde	-8163
▁meth	-8164
▁mété	-8165
Seriez	-8166
occupe	-8167
verrai	-8168
▁Frank	-8169
▁actor	-8170
▁anger	-8171
▁argue	-8172
▁board	-8173
▁boxes	-8174
▁dozen	-8175
▁déton	-8176
▁ennem	-8177
▁feras	-8178
▁fifty	-8179
▁fully	-8180
▁maire	-8181
▁malin	-8182
▁menac	-8183
▁pants	-8184
▁perds	-8185
▁rêver	-8186
▁socks	-8187
▁terms	-8188
▁tâche	-8189
Appelez	-8190
xpected	-8191
▁allumé	-8192
▁annulé	-8193
▁bottom	-8194
▁castle	-8195
▁doubts	-8196
▁fautes	-8197
▁flying	-8198
▁genius	-8199
▁income	-8200
▁intrig	-8201
▁mettez	-8202
▁plants	-8203
▁poured	-8204
▁remise	-8205
▁reprod	-8206
▁sentit	-8207
▁tempor	-8208
▁trouva	-8209
▁vivait	-8210
▁éviter	-8211
▁appears	-8212
▁château	-8213
▁crowded	-8214
▁fifteen	-8215
▁happier	-8216
▁holding	-8217
▁knocked	-8218
▁liquide	-8219
▁longues	-8220
▁parlais	-8221
▁parvenu	-8222
▁plainte	-8223
▁raconté	-8224
▁reasons	-8225
▁sentait	-8226
▁survécu	-8227
▁unlucky	-8228
▁valises	-8229
▁witness	-8230
▁addition	-8231
▁canceled	-8232
▁cherches	-8233
▁definite	-8234
▁déménagé	-8235
▁dépourvu	-8236
▁greatest	-8237
▁politics	-8238
▁properly	-8239
▁regardes	-8240
▁remercie	-8241
▁réaliser	-8242
▁stronger	-8243
▁écrivain	-8244
▁assurance	-8245
▁capitaine	-8246
▁committee	-8247
▁naissance	-8248
▁brouillard	-8249
▁fonctionné	-8250
▁incredible	-8251
▁newspapers	-8252
▁satisfaite	-8253
▁application	-8254
▁constamment	-8255
▁directement	-8256
▁importantes	-8257
▁scientifique	-8258
▁understanding	-8259
io	-8260
ana	-8261
erk	-8262
ips	-8263
oln	-8264
pre	-8265
umb	-8266
▁Ap	-8267
▁Mt	-8268
▁iP	-8269
▁lâ	-8270
Aide	-8271
eral	-8272
neur	-8273
oler	-8274
ombe	-8275
reen	-8276
▁dot	-8277
▁dri	-8278
▁eur	-8279
▁foi	-8280
▁lou	-8281
▁méc	-8282
▁tal	-8283
▁tém	-8284
arrow	-8285
isées	-8286
▁Brit	-8287
▁agit	-8288
▁astu	-8289
▁bags	-8290
▁barg	-8291
▁deny	-8292
▁doué	-8293
▁fout	-8294
▁gate	-8295
▁lack	-8296
▁obst	-8297
▁papa	-8298
▁rate	-8299
▁valu	-8300
incoln	-8301
▁arrog	-8302
▁aside	-8303
▁baked	-8304
▁demie	-8305
▁exige	-8306
▁faith	-8307
▁gotta	-8308
▁named	-8309
▁sauce	-8310
▁shame	-8311
▁sonné	-8312
▁thick	-8313
▁track	-8314
▁value	-8315
Désolée	-8316
article	-8317
ciation	-8318
entendu	-8319
resseux	-8320
étaient	-8321
▁admire	-8322
▁attrib	-8323
▁bitter	-8324
▁cambri	-8325
▁drawer	-8326
▁ferons	-8327
▁firent	-8328
▁hurler	-8329
▁lasted	-8330
▁mourut	-8331
▁négoci	-8332
▁portez	-8333
▁prénom	-8334
▁quitte	-8335
▁remède	-8336
▁représ	-8337
▁robbed	-8338
▁régler	-8339
▁salade	-8340
▁sieste	-8341
▁struck	-8342
▁témoin	-8343
▁énervé	-8344
Laquelle	-8345
addition	-8346
▁baisser	-8347
▁charger	-8348
▁cheated	-8349
▁confirm	-8350
▁dérangé	-8351
▁hauteur	-8352
▁horreur	-8353
▁jalouse	-8354
▁offered	-8355
▁oranges	-8356
▁planted	-8357
▁product	-8358
▁prévenu	-8359
▁sincere	-8360
▁unusual	-8361
▁vérifié	-8362
▁accompli	-8363
▁aimeriez	-8364
▁apporter	-8365
▁arrivent	-8366
▁becoming	-8367
▁chandail	-8368
▁demandes	-8369
▁handsome	-8370
▁hesitate	-8371
▁kindness	-8372
▁médecins	-8373
▁opinions	-8374
▁patients	-8375
▁pickpock	-8376
▁powerful	-8377
▁pénétrer	-8378
▁quantité	-8379
▁wondered	-8380
▁chauffeur	-8381
▁considéré	-8382
▁demandais	-8383
▁destroyed	-8384
▁mensonges	-8385
▁paresseux	-8386
▁troisième	-8387
▁compliment	-8388
▁formulaire	-8389
▁meilleures	-8390
▁coincidence	-8391
▁possibilités	-8392
▁pratiquement	-8393
▁supplémentaire	-8394
Bon	-8395
Rep	-8396
apa	-8397
des	-8398
dis	-8399
iew	-8400
ili	-8401
ina	-8402
obé	-8403
tic	-8404
zed	-8405
écl	-8406
▁La	-8407
▁Oh	-8408
Ceux	-8409
Dépê	-8410
Tour	-8411
arez	-8412
aves	-8413
cope	-8414
hand	-8415
huit	-8416
lley	-8417
loge	-8418
uiss	-8419
writ	-8420
▁amp	-8421
▁mén	-8422
▁net	-8423
accus	-8424
aison	-8425
arian	-8426
chait	-8427
eared	-8428
estre	-8429
herbe	-8430
idées	-8431
isent	-8432
itter	-8433
ormer	-8434
ottes	-8435
tured	-8436
▁assi	-8437
▁doté	-8438
▁fake	-8439
▁garé	-8440
▁heur	-8441
▁mall	-8442
▁mépr	-8443
▁rabb	-8444
▁rues	-8445
▁saig	-8446
▁sail	-8447
▁sain	-8448
▁sink	-8449
▁voté	-8450
Assure	-8451
Demand	-8452
oiseau	-8453
rences	-8454
▁allem	-8455
▁bench	-8456
▁camar	-8457
▁candy	-8458
▁cares	-8459
▁casse	-8460
▁claim	-8461
▁earns	-8462
▁focus	-8463
▁helps	-8464
▁irons	-8465
▁lampe	-8466
▁limit	-8467
▁lines	-8468
▁louer	-8469
▁maman	-8470
▁parla	-8471
▁souri	-8472
▁spare	-8473
▁tapis	-8474
▁total	-8475
▁weigh	-8476
aiderai	-8477
envoyer	-8478
estomac	-8479
ographe	-8480
utilise	-8481
▁Almost	-8482
▁Forget	-8483
▁Prices	-8484
▁amical	-8485
▁aurons	-8486
▁baiser	-8487
▁blâmer	-8488
▁censée	-8489
▁climat	-8490
▁closet	-8491
▁courri	-8492
▁croiss	-8493
▁croyez	-8494
▁detail	-8495
▁doigts	-8496
▁dollar	-8497
▁esprit	-8498
▁fortun	-8499
▁height	-8500
▁higher	-8501
▁intent	-8502
▁lesson	-8503
▁mobile	-8504
▁narrow	-8505
▁papers	-8506
▁perdue	-8507
▁poulet	-8508
▁prover	-8509
▁repeat	-8510
▁restés	-8511
▁romans	-8512
▁saving	-8513
▁stared	-8514
▁villes	-8515
Apportez	-8516
ncidence	-8517
▁Because	-8518
▁adopted	-8519
▁ajouter	-8520
▁barking	-8521
▁cadeaux	-8522
▁ceremon	-8523
▁chevaux	-8524
▁delayed	-8525
▁elected	-8526
▁engaged	-8527
▁finding	-8528
▁greeted	-8529
▁liberté	-8530
▁partage	-8531
▁passage	-8532
▁planète	-8533
▁pockets	-8534
▁proches	-8535
▁trained	-8536
▁warning	-8537
▁Facebook	-8538
▁Tomorrow	-8539
▁describe	-8540
▁développ	-8541
▁employés	-8542
▁gratuite	-8543
▁holidays	-8544
▁manières	-8545
▁marchand	-8546
▁notebook	-8547
▁patronne	-8548
▁ridicule	-8549
▁réfléchi	-8550
▁apparence	-8551
▁directeur	-8552
▁française	-8553
▁reviendra	-8554
▁apologized	-8555
▁complaints	-8556
▁contrariée	-8557
▁determined	-8558
▁malentendu	-8559
▁protection	-8560
▁unexpected	-8561
▁ordinateurs	-8562
▁relationship	-8563
Env	-8564
ago	-8565
iev	-8566
lou	-8567
ony	-8568
ops	-8569
ste	-8570
ump	-8571
ôts	-8572
▁Te	-8573
Pres	-8574
acté	-8575
cris	-8576
eule	-8577
lymp	-8578
main	-8579
offe	-8580
quit	-8581
roid	-8582
tant	-8583
érés	-8584
▁glo	-8585
▁jog	-8586
▁lux	-8587
▁rub	-8588
▁tex	-8589
▁var	-8590
▁égo	-8591
aucun	-8592
icago	-8593
mates	-8594
nelle	-8595
venez	-8596
écart	-8597
▁Cats	-8598
▁Park	-8599
▁agir	-8600
▁aver	-8601
▁bark	-8602
▁blow	-8603
▁chim	-8604
▁cout	-8605
▁deaf	-8606
▁flex	-8607
▁fold	-8608
▁hein	-8609
▁lion	-8610
▁onze	-8611
▁owns	-8612
▁pros	-8613
▁rail	-8614
▁scol	-8615
▁émot	-8616
chette	-8617
outons	-8618
reuses	-8619
▁Afric	-8620
▁Alice	-8621
▁Italy	-8622
▁Spain	-8623
▁Think	-8624
▁amené	-8625
▁basse	-8626
▁begun	-8627
▁durer	-8628
▁enreg	-8629
▁fûmes	-8630
▁hopes	-8631
▁ingén	-8632
▁lower	-8633
▁lâche	-8634
▁miser	-8635
▁plate	-8636
▁quels	-8637
▁salad	-8638
▁scène	-8639
▁shock	-8640
▁tente	-8641
▁truly	-8642
▁uncom	-8643
▁éparg	-8644
Dépêche	-8645
Pendant	-8646
section	-8647
tective	-8648
érateur	-8649
▁Listen	-8650
▁Valent	-8651
▁assume	-8652
▁comité	-8653
▁cooked	-8654
▁danced	-8655
▁donnez	-8656
▁garant	-8657
▁interv	-8658
▁itself	-8659
▁larger	-8660
▁novels	-8661
▁néglig	-8662
▁retiré	-8663
▁réfrig	-8664
▁réparé	-8665
▁sacrif	-8666
▁venait	-8667
▁vieill	-8668
▁Chicago	-8669
▁Frankly	-8670
▁Mondays	-8671
▁apprend	-8672
▁closely	-8673
▁compréh	-8674
▁diplômé	-8675
▁doctors	-8676
▁economy	-8677
▁faisiez	-8678
▁laisses	-8679
▁largest	-8680
▁logique	-8681
▁matière	-8682
▁naturel	-8683
▁opening	-8684
▁paroles	-8685
▁pauvres	-8686
▁prepare	-8687
▁preuves	-8688
▁reminds	-8689
▁stunned	-8690
▁superbe	-8691
▁tromper	-8692
▁urgence	-8693
▁volonté	-8694
important	-8695
▁annoying	-8696
▁attended	-8697
▁aussitôt	-8698
▁concerne	-8699
▁continua	-8700
▁locuteur	-8701
▁menteuse	-8702
▁millions	-8703
▁nonsense	-8704
▁objectif	-8705
▁regardez	-8706
▁religion	-8707
▁savaient	-8708
▁soixante	-8709
▁tableaux	-8710
▁textbook	-8711
▁thirteen	-8712
▁trouvent	-8713
Angleterre	-8714
▁cherchais	-8715
▁desperate	-8716
▁délicieux	-8717
▁mentionné	-8718
▁paintings	-8719
▁pollution	-8720
▁prononcer	-8721
▁conclusion	-8722
▁disappoint	-8723
▁successful	-8724
▁threatened	-8725
▁étrangères	-8726
▁concentrate	-8727
▁confortable	-8728
▁travaillons	-8729
▁uncomfortable	-8730
gs	-8731
Rép	-8732
rud	-8733
uez	-8734
ysi	-8735
èce	-8736
▁Bl	-8737
▁Me	-8738
▁py	-8739
Mais	-8740
Part	-8741
Perm	-8742
agée	-8743
ctes	-8744
ervé	-8745
gest	-8746
oids	-8747
ouff	-8748
sept	-8749
vant	-8750
vres	-8751
ware	-8752
èner	-8753
▁côt	-8754
▁deg	-8755
▁lus	-8756
▁pig	-8757
▁por	-8758
▁épr	-8759
▁œuv	-8760
Heure	-8761
Trois	-8762
antly	-8763
armée	-8764
assez	-8765
choir	-8766
illed	-8767
iteur	-8768
mbles	-8769
onnez	-8770
shirt	-8771
ummer	-8772
urent	-8773
wards	-8774
▁Find	-8775
▁Lune	-8776
▁belt	-8777
▁cure	-8778
▁fate	-8779
▁pist	-8780
▁pure	-8781
▁styl	-8782
▁surr	-8783
▁symb	-8784
▁unde	-8785
Commen	-8786
admets	-8787
arture	-8788
aucune	-8789
endrez	-8790
envers	-8791
ieuses	-8792
imagin	-8793
ishing	-8794
▁Check	-8795
▁bluff	-8796
▁crier	-8797
▁cuill	-8798
▁douce	-8799
▁liter	-8800
▁maybe	-8801
▁motor	-8802
▁mérit	-8803
▁physi	-8804
▁récol	-8805
▁répar	-8806
▁shook	-8807
▁silly	-8808
▁timid	-8809
▁walks	-8810
▁équip	-8811
appréci	-8812
enseign	-8813
ilities	-8814
istence	-8815
obtenir	-8816
▁Améric	-8817
▁affair	-8818
▁center	-8819
▁curios	-8820
▁dessin	-8821
▁doulou	-8822
▁décoll	-8823
▁eleven	-8824
▁fermés	-8825
▁fleuve	-8826
▁habits	-8827
▁hammer	-8828
▁insane	-8829
▁lignes	-8830
▁miroir	-8831
▁mirror	-8832
▁resist	-8833
▁signer	-8834
▁sourit	-8835
▁supéri	-8836
▁trains	-8837
▁trembl	-8838
▁trompe	-8839
▁univer	-8840
▁weapon	-8841
▁éclair	-8842
▁épuisé	-8843
emporter	-8844
endormir	-8845
onnement	-8846
piration	-8847
▁Anybody	-8848
▁Smoking	-8849
▁biggest	-8850
▁blagues	-8851
▁cheaper	-8852
▁chirurg	-8853
▁choices	-8854
▁develop	-8855
▁disturb	-8856
▁emmener	-8857
▁employé	-8858
▁fingers	-8859
▁gentils	-8860
▁hanging	-8861
▁helpful	-8862
▁inventé	-8863
▁marteau	-8864
▁meubles	-8865
▁méchant	-8866
▁ouvrage	-8867
▁package	-8868
▁personn	-8869
▁putting	-8870
▁retenir	-8871
▁scolded	-8872
▁solaire	-8873
▁violent	-8874
▁website	-8875
▁étoiles	-8876
Allemagne	-8877
ascenseur	-8878
étudiants	-8879
▁admitted	-8880
▁allergic	-8881
▁ambition	-8882
▁attacked	-8883
▁ceremony	-8884
▁commande	-8885
▁corriger	-8886
▁generous	-8887
▁informed	-8888
▁intended	-8889
▁messages	-8890
▁mouchoir	-8891
▁prévenir	-8892
▁rassembl	-8893
▁retourné	-8894
▁sometime	-8895
▁supposée	-8896
▁visiting	-8897
▁éteindre	-8898
Commençons	-8899
▁computers	-8900
▁conseille	-8901
▁cérémonie	-8902
▁departure	-8903
▁déménager	-8904
▁objection	-8905
▁passagers	-8906
▁preparing	-8907
▁convaincue	-8908
▁préférable	-8909
▁reasonable	-8910
▁satisfaits	-8911
▁alternative	-8912
▁changements	-8913
▁performance	-8914
▁construction	-8915
▁intersection	-8916
▁merveilleuse	-8917
▁soudainement	-8918
▁réfrigérateur	-8919
Du	-8920
Ex	-8921
Gr	-8922
Oh	-8923
Se	-8924
mn	-8925
Yes	-8926
eul	-8927
ipt	-8928
mar	-8929
éan	-8930
▁Ab	-8931
ilos	-8932
ivid	-8933
neuf	-8934
onge	-8935
onst	-8936
oved	-8937
écut	-8938
égét	-8939
érez	-8940
œufs	-8941
▁Air	-8942
▁Nag	-8943
▁Oui	-8944
▁Que	-8945
▁bol	-8946
▁clô	-8947
▁coc	-8948
▁err	-8949
▁mos	-8950
▁sop	-8951
Aidez	-8952
agnes	-8953
ailed	-8954
apons	-8955
ggage	-8956
imate	-8957
irais	-8958
ville	-8959
élect	-8960
▁Each	-8961
▁bale	-8962
▁cris	-8963
▁cult	-8964
▁decl	-8965
▁hamb	-8966
▁jeta	-8967
▁prat	-8968
▁redu	-8969
▁saou	-8970
▁sons	-8971
▁stru	-8972
▁tatt	-8973
▁thro	-8974
▁upon	-8975
Ouvrez	-8976
emprun	-8977
ertain	-8978
espace	-8979
everal	-8980
habitu	-8981
lettes	-8982
ounced	-8983
phabet	-8984
▁Stand	-8985
▁affam	-8986
▁bross	-8987
▁cesse	-8988
▁coach	-8989
▁collè	-8990
▁crash	-8991
▁drugs	-8992
▁décor	-8993
▁délic	-8994
▁ferma	-8995
▁forts	-8996
▁freez	-8997
▁gants	-8998
▁kilos	-8999
▁legal	-9000
▁mater	-9001
▁miens	-9002
▁minim	-9003
▁moral	-9004
▁mordu	-9005
▁ocean	-9006
▁piège	-9007
▁plomb	-9008
▁rooms	-9009
▁serré	-9010
▁situe	-9011
▁swear	-9012
▁végét	-9013
▁élève	-9014
Prenons	-9015
Presque	-9016
ilosoph	-9017
ization	-9018
respons	-9019
▁aimons	-9020
▁amitié	-9021
▁amusés	-9022
▁bitten	-9023
▁bullet	-9024
▁causer	-9025
▁contag	-9026
▁copies	-9027
▁exprès	-9028
▁farmer	-9029
▁façons	-9030
▁foudre	-9031
▁horses	-9032
▁menace	-9033
▁mètres	-9034
▁negoti	-9035
▁pardon	-9036
▁passes	-9037
▁perman	-9038
▁planet	-9039
▁recons	-9040
▁rendra	-9041
▁retira	-9042
▁rouges	-9043
▁éclata	-9044
▁écrite	-9045
agissait	-9046
apprends	-9047
▁Several	-9048
▁achieve	-9049
▁apology	-9050
▁assumed	-9051
▁corresp	-9052
▁discour	-9053
▁dispute	-9054
▁dreamed	-9055
▁détruit	-9056
▁injuste	-9057
▁interpr	-9058
▁kissing	-9059
▁luggage	-9060
▁méthode	-9061
▁partiel	-9062
▁permett	-9063
▁plafond	-9064
▁portent	-9065
▁prenons	-9066
▁prétend	-9067
▁reviend	-9068
▁secours	-9069
▁sophist	-9070
▁suggéré	-9071
▁surpren	-9072
▁version	-9073
▁weapons	-9074
Plusieurs	-9075
▁concours	-9076
▁douzaine	-9077
▁grossier	-9078
▁invented	-9079
▁physique	-9080
▁pleurait	-9081
▁potatoes	-9082
▁profonde	-9083
▁préférez	-9084
▁refriger	-9085
appartient	-9086
▁bothering	-9087
▁challenge	-9088
▁customers	-9089
▁disposais	-9090
▁faisaient	-9091
▁fréquence	-9092
▁irrespons	-9093
▁mountains	-9094
▁screaming	-9095
▁téléphoné	-9096
▁discovered	-9097
▁disgusting	-9098
▁ressources	-9099
▁ridiculous	-9100
▁translated	-9101
▁electricity	-9102
▁reservation	-9103
▁professional	-9104
▁terriblement	-9105
▁impressionnée	-9106
ax	-9107
Toi	-9108
awa	-9109
cri	-9110
jam	-9111
mit	-9112
onc	-9113
rut	-9114
uya	-9115
▁Fl	-9116
▁Fo	-9117
▁ok	-9118
cule	-9119
uels	-9120
éant	-9121
▁Asi	-9122
▁Non	-9123
▁ath	-9124
▁gat	-9125
▁jup	-9126
▁obt	-9127
▁pel	-9128
▁pus	-9129
▁sir	-9130
▁sne	-9131
▁spy	-9132
▁sév	-9133
Ouvre	-9134
anted	-9135
iaque	-9136
iring	-9137
océan	-9138
onest	-9139
rimin	-9140
urity	-9141
▁Cont	-9142
▁Fill	-9143
▁adap	-9144
▁appr	-9145
▁data	-9146
▁fraî	-9147
▁fuss	-9148
▁gout	-9149
▁joli	-9150
▁paye	-9151
▁poet	-9152
▁poli	-9153
▁sore	-9154
▁taux	-9155
▁tric	-9156
Allume	-9157
admire	-9158
allait	-9159
▁Money	-9160
▁Saint	-9161
▁Speak	-9162
▁alibi	-9163
▁alike	-9164
▁battu	-9165
▁brûlé	-9166
▁croir	-9167
▁embau	-9168
▁flood	-9169
▁handy	-9170
▁hello	-9171
▁jouez	-9172
▁juger	-9173
▁loser	-9174
▁purse	-9175
▁sells	-9176
▁shout	-9177
▁sonne	-9178
▁spite	-9179
▁tenez	-9180
▁virer	-9181
parents	-9182
èvement	-9183
▁Africa	-9184
▁Anyone	-9185
▁advert	-9186
▁arrest	-9187
▁casser	-9188
▁dumped	-9189
▁décour	-9190
▁engagé	-9191
▁entrée	-9192
▁fausse	-9193
▁forcer	-9194
▁forcée	-9195
▁fought	-9196
▁gloves	-9197
▁indiff	-9198
▁infect	-9199
▁louder	-9200
▁matéri	-9201
▁passez	-9202
▁pleuve	-9203
▁polici	-9204
▁sleeps	-9205
▁starts	-9206
▁statue	-9207
▁supper	-9208
▁tenter	-9209
▁vaches	-9210
▁warmer	-9211
▁étasun	-9212
abilités	-9213
entendis	-9214
essayais	-9215
▁Promise	-9216
▁annuler	-9217
▁appelée	-9218
▁charges	-9219
▁considé	-9220
▁consomm	-9221
▁envoyer	-9222
▁gratuit	-9223
▁haircut	-9224
▁illégal	-9225
▁informé	-9226
▁inviter	-9227
▁removed	-9228
▁rendent	-9229
▁ringing	-9230
▁streets	-9231
▁turning	-9232
adorerais	-9233
éducation	-9234
▁accompan	-9235
▁admettre	-9236
▁aimerait	-9237
▁arrivées	-9238
▁distrait	-9239
▁domicile	-9240
▁entrance	-9241
▁fantômes	-9242
▁fluently	-9243
▁gathered	-9244
▁imagined	-9245
▁incident	-9246
▁inquiète	-9247
▁research	-9248
▁stupides	-9249
▁alentours	-9250
▁employees	-9251
▁enseigner	-9252
▁envisager	-9253
▁influence	-9254
▁knowledge	-9255
▁montrerai	-9256
▁published	-9257
▁rattraper	-9258
▁souhaitez	-9259
▁arriverait	-9260
▁conference	-9261
▁definitely	-9262
▁distinguer	-9263
▁excellente	-9264
▁rencontres	-9265
▁situations	-9266
▁téléphoner	-9267
▁disappeared	-9268
▁refrigerator	-9269
▁incroyablement	-9270
ma	-9271
xy	-9272
Réf	-9273
ano	-9274
cté	-9275
hib	-9276
kin	-9277
obe	-9278
ung	-9279
êtu	-9280
▁ho	-9281
bage	-9282
elve	-9283
gage	-9284
nait	-9285
once	-9286
orce	-9287
tumn	-9288
year	-9289
ètre	-9290
▁Bir	-9291
▁Fin	-9292
▁Man	-9293
▁Mus	-9294
▁ign	-9295
▁mix	-9296
▁mun	-9297
▁raf	-9298
▁reb	-9299
▁sin	-9300
▁unb	-9301
▁équ	-9302
Enfin	-9303
Mange	-9304
aises	-9305
asing	-9306
blige	-9307
chite	-9308
icien	-9309
incap	-9310
irmer	-9311
mploy	-9312
oires	-9313
écout	-9314
▁Luck	-9315
▁More	-9316
▁Soon	-9317
▁aisé	-9318
▁anal	-9319
▁aper	-9320
▁blew	-9321
▁cott	-9322
▁dira	-9323
▁hook	-9324
▁jeté	-9325
▁jury	-9326
▁miel	-9327
▁nive	-9328
▁nord	-9329
▁pomp	-9330
▁pâle	-9331
▁quas	-9332
▁spoi	-9333
Lorsqu	-9334
ailles	-9335
anches	-9336
leased	-9337
mbered	-9338
minist	-9339
ousias	-9340
uisent	-9341
étoffe	-9342
▁Drink	-9343
▁Guess	-9344
▁Shall	-9345
▁While	-9346
▁armed	-9347
▁bound	-9348
▁brand	-9349
▁cover	-9350
▁eager	-9351
▁effet	-9352
▁fabri	-9353
▁fêtes	-9354
▁métro	-9355
▁météo	-9356
▁noirs	-9357
▁noisy	-9358
▁payée	-9359
▁salon	-9360
▁sauté	-9361
▁signé	-9362
▁sites	-9363
▁sweat	-9364
▁vache	-9365
▁voter	-9366
ignorer	-9367
issante	-9368
itement	-9369
▁acteur	-9370
▁agress	-9371
▁ballon	-9372
▁behave	-9373
▁blonde	-9374
▁choqué	-9375
▁cities	-9376
▁connue	-9377
▁craint	-9378
▁critic	-9379
▁disais	-9380
▁drogue	-9381
▁dégoût	-9382
▁effect	-9383
▁fiable	-9384
▁gueule	-9385
▁hypoth	-9386
▁inconn	-9387
▁lourde	-9388
▁method	-9389
▁nearby	-9390
▁privée	-9391
▁profit	-9392
▁publié	-9393
▁ralent	-9394
▁recent	-9395
▁réchau	-9396
▁seated	-9397
▁sienne	-9398
▁signed	-9399
▁sortis	-9400
▁subway	-9401
▁tattoo	-9402
▁wasted	-9403
onnèrent	-9404
▁Shouldn	-9405
▁aliment	-9406
▁archite	-9407
▁arrêtée	-9408
▁average	-9409
▁bargain	-9410
▁burning	-9411
▁comprom	-9412
▁connait	-9413
▁coûtera	-9414
▁enemies	-9415
▁funeral	-9416
▁granted	-9417
▁handled	-9418
▁humains	-9419
▁impuiss	-9420
▁jogging	-9421
▁obligés	-9422
▁papiers	-9423
▁pharmac	-9424
▁qualité	-9425
▁reserve	-9426
▁retardé	-9427
▁snowing	-9428
▁sounded	-9429
▁talents	-9430
▁végétar	-9431
▁yelling	-9432
▁allemand	-9433
▁bienvenu	-9434
▁bleeding	-9435
▁endormie	-9436
▁industry	-9437
▁interrup	-9438
▁national	-9439
▁pleuvait	-9440
▁possibly	-9441
▁ressenti	-9442
▁survivre	-9443
▁teenager	-9444
▁universe	-9445
incapacité	-9446
▁Valentine	-9447
▁américain	-9448
▁chanteuse	-9449
▁disturbed	-9450
▁désaccord	-9451
▁effectuer	-9452
▁grossière	-9453
▁plaisante	-9454
▁recovered	-9455
▁regardait	-9456
▁sensitive	-9457
▁volunteer	-9458
accompagner	-9459
▁confidence	-9460
▁experiment	-9461
▁impatience	-9462
▁incredibly	-9463
▁intentions	-9464
▁reviendrai	-9465
▁surprising	-9466
inconvénient	-9467
▁accompanied	-9468
▁restaurants	-9469
▁professionnel	-9470
▁sophisticated	-9471
fs	-9472
Lis	-9473
asy	-9474
ery	-9475
ids	-9476
jud	-9477
opé	-9478
ota	-9479
▁Ce	-9480
▁Es	-9481
▁ur	-9482
Dieu	-9483
agir	-9484
apes	-9485
aste	-9486
chon	-9487
ilar	-9488
obil	-9489
quin	-9490
uded	-9491
uted	-9492
yond	-9493
êter	-9494
▁Min	-9495
▁Pre	-9496
▁ang	-9497
▁bre	-9498
▁har	-9499
▁lut	-9500
▁nag	-9501
▁tip	-9502
▁île	-9503
Fumer	-9504
Juste	-9505
Maman	-9506
aides	-9507
aules	-9508
encre	-9509
endue	-9510
icles	-9511
issue	-9512
offre	-9513
organ	-9514
écrit	-9515
▁Grab	-9516
▁Gree	-9517
▁Hang	-9518
▁Next	-9519
▁ages	-9520
▁astr	-9521
▁cave	-9522
▁clar	-9523
▁côte	-9524
▁doux	-9525
▁edge	-9526
▁glac	-9527
▁kidn	-9528
▁leak	-9529
▁lois	-9530
▁neat	-9531
▁okay	-9532
▁outr	-9533
▁peau	-9534
▁pétr	-9535
▁rand	-9536
▁roll	-9537
▁ruin	-9538
▁tape	-9539
▁twin	-9540
▁wild	-9541
Europe	-9542
excuse	-9543
humour	-9544
onques	-9545
ophone	-9546
though	-9547
veille	-9548
▁Doesn	-9549
▁admis	-9550
▁bouge	-9551
▁cheek	-9552
▁cuire	-9553
▁côtés	-9554
▁ferez	-9555
▁finit	-9556
▁fâché	-9557
▁grâce	-9558
▁hilar	-9559
▁humor	-9560
▁jaune	-9561
▁kilom	-9562
▁lisez	-9563
▁meurt	-9564
▁mince	-9565
▁rainy	-9566
▁requi	-9567
▁risks	-9568
▁révél	-9569
▁scand	-9570
▁skirt	-9571
▁stamp	-9572
▁stret	-9573
▁tatou	-9574
▁tense	-9575
▁trous	-9576
endrier	-9577
ennuyer	-9578
essayez	-9579
quelles	-9580
▁acheta	-9581
▁aimait	-9582
▁allais	-9583
▁applau	-9584
▁battle	-9585
▁beyond	-9586
▁cooper	-9587
▁crimes	-9588
▁darker	-9589
▁expéri	-9590
▁headed	-9591
▁horrif	-9592
▁ignoré	-9593
▁insult	-9594
▁mangea	-9595
▁niveau	-9596
▁partez	-9597
▁policy	-9598
▁poussé	-9599
▁prince	-9600
▁rented	-9601
▁réflex	-9602
▁sonner	-9603
▁square	-9604
▁thanks	-9605
▁throat	-9606
▁transp	-9607
▁verres	-9608
▁voyagé	-9609
▁élevés	-9610
▁étoile	-9611
allemand	-9612
applique	-9613
habiller	-9614
▁actress	-9615
▁attends	-9616
▁bonjour	-9617
▁ceiling	-9618
▁climate	-9619
▁clôture	-9620
▁croient	-9621
▁dangers	-9622
▁demeure	-9623
▁devenus	-9624
▁entière	-9625
▁essayez	-9626
▁factory	-9627
▁fastest	-9628
▁individ	-9629
▁materne	-9630
▁mystery	-9631
▁passera	-9632
▁pleuvra	-9633
▁predict	-9634
▁privacy	-9635
▁process	-9636
▁période	-9637
▁regular	-9638
▁related	-9639
▁réduire	-9640
▁selfish	-9641
▁traduit	-9642
▁useless	-9643
▁victime	-9644
attendait	-9645
▁Anything	-9646
▁approche	-9647
▁batterie	-9648
▁blessure	-9649
▁cherchez	-9650
▁correcte	-9651
▁counting	-9652
▁courriel	-9653
▁deadline	-9654
▁deserves	-9655
▁effrayée	-9656
▁entendit	-9657
▁espérons	-9658
▁interdit	-9659
▁musician	-9660
▁positive	-9661
▁prisoner	-9662
▁products	-9663
▁quarante	-9664
▁reporter	-9665
▁respecte	-9666
▁séjourné	-9667
▁authority	-9668
▁contraire	-9669
▁courageux	-9670
▁daughters	-9671
▁déterminé	-9672
▁détestent	-9673
▁fortunate	-9674
▁philosoph	-9675
▁représent	-9676
▁récupérer	-9677
▁scientist	-9678
▁similaire	-9679
▁souvenirs	-9680
▁transport	-9681
▁conducteur	-9682
▁correspond	-9683
▁prisonnier	-9684
▁surprendre	-9685
▁traduction	-9686
▁quelconques	-9687
▁embarrassing	-9688
▁explications	-9689
▁investigation	-9690
▁supplémentaires	-9691
Fr	-9692
bu	-9693
to	-9694
alf	-9695
bly	-9696
ium	-9697
ral	-9698
ros	-9699
uri	-9700
uée	-9701
épr	-9702
▁Ob	-9703
▁mi	-9704
Mère	-9705
Papa	-9706
Père	-9707
amie	-9708
ança	-9709
auté	-9710
enfu	-9711
inos	-9712
itor	-9713
mine	-9714
oter	-9715
otte	-9716
vere	-9717
wood	-9718
çait	-9719
▁And	-9720
▁Cut	-9721
▁USA	-9722
▁hés	-9723
▁ink	-9724
▁mud	-9725
▁spl	-9726
▁tig	-9727
▁élu	-9728
arily	-9729
aster	-9730
icial	-9731
igine	-9732
odeur	-9733
onstr	-9734
rasse	-9735
raîch	-9736
▁Cong	-9737
▁Elle	-9738
▁Prés	-9739
▁Reme	-9740
▁atom	-9741
▁atta	-9742
▁brûl	-9743
▁cise	-9744
▁defe	-9745
▁défi	-9746
▁flag	-9747
▁flew	-9748
▁oses	-9749
▁oven	-9750
▁path	-9751
▁rush	-9752
▁rêvé	-9753
▁sush	-9754
▁targ	-9755
entiel	-9756
heures	-9757
issors	-9758
oblige	-9759
oignez	-9760
othing	-9761
quette	-9762
venant	-9763
weight	-9764
▁Olymp	-9765
▁absur	-9766
▁below	-9767
▁bills	-9768
▁bombe	-9769
▁buvez	-9770
▁conce	-9771
▁défin	-9772
▁emmen	-9773
▁error	-9774
▁hoped	-9775
▁irrit	-9776
▁litté	-9777
▁ordre	-9778
▁poule	-9779
▁régul	-9780
▁shall	-9781
▁sheep	-9782
▁sonna	-9783
▁spoon	-9784
▁tendu	-9785
▁vente	-9786
▁voted	-9787
▁whist	-9788
▁âgées	-9789
Choisis	-9790
glasses	-9791
intérêt	-9792
istance	-9793
ologist	-9794
olution	-9795
▁achète	-9796
▁chargé	-9797
▁diable	-9798
▁doutes	-9799
▁ennemi	-9800
▁fortes	-9801
▁ghosts	-9802
▁incons	-9803
▁jouent	-9804
▁kicked	-9805
▁libres	-9806
▁loudly	-9807
▁pareil	-9808
▁promit	-9809
▁reject	-9810
▁selfie	-9811
▁simply	-9812
▁strike	-9813
▁tendit	-9814
▁terror	-9815
▁unfair	-9816
▁voient	-9817
▁épaule	-9818
▁études	-9819
arrivera	-9820
idemment	-9821
iendrait	-9822
onscious	-9823
▁Lincoln	-9824
▁adorent	-9825
▁ancient	-9826
▁arrives	-9827
▁assisté	-9828
▁attempt	-9829
▁avancer	-9830
▁baggage	-9831
▁candles	-9832
▁cherché	-9833
▁ciseaux	-9834
▁cottage	-9835
▁croyait	-9836
▁déclaré	-9837
▁emporté	-9838
▁fournir	-9839
▁fraîche	-9840
▁grimper	-9841
▁habillé	-9842
▁mistook	-9843
▁partons	-9844
▁passées	-9845
▁prépare	-9846
▁recover	-9847
▁soucier	-9848
▁tallest	-9849
▁voleurs	-9850
▁whoever	-9851
▁épaules	-9852
▁épouser	-9853
explosion	-9854
▁Remember	-9855
▁amélioré	-9856
▁boissons	-9857
▁consacré	-9858
▁dépenser	-9859
▁déprimée	-9860
▁emporter	-9861
▁exprimer	-9862
▁flexible	-9863
▁organisé	-9864
▁produise	-9865
▁présents	-9866
▁required	-9867
▁revienne	-9868
▁réussite	-9869
▁scissors	-9870
▁security	-9871
▁serpents	-9872
▁sûrement	-9873
▁valuable	-9874
▁Président	-9875
▁agreement	-9876
▁answering	-9877
▁centaines	-9878
▁emplettes	-9879
▁montagnes	-9880
▁operation	-9881
▁postponed	-9882
▁promotion	-9883
▁publicité	-9884
▁quasiment	-9885
▁reprocher	-9886
▁allergique	-9887
▁appearance	-9888
▁collecting	-9889
▁infirmière	-9890
▁pourraient	-9891
▁remembered	-9892
▁trouverais	-9893
Heureusement	-9894
▁mathematics	-9895
▁nécessaires	-9896
▁personnelle	-9897
▁pickpockets	-9898
▁ressemblent	-9899
▁réservation	-9900
▁institutrice	-9901
▁marchandises	-9902
▁signification	-9903
Acc	-9904
Rac	-9905
Rec	-9906
awn	-9907
bor	-9908
fum	-9909
iti	-9910
lam	-9911
ran	-9912
uct	-9913
ued	-9914
upp	-9915
▁11	-9916
▁tâ	-9917
Cond	-9918
Disp	-9919
Pard	-9920
crit	-9921
▁	-9922
e	-9923
t	-9924
o	-9925
a	-9926
s	-9927
i	-9928
n	-9929
r	-9930
u	-9931
l	-9932
d	-9933
.	-9934
m	-9935
h	-9936
p	-9937
c	-9938
v	-9939
'	-9940
y	-9941
g	-9942
f	-9943
w	-9944
b	-9945
é	-9946
I	-9947
q	-9948
T	-9949
?	-9950
k	-9951
J	-9952
-	-9953
j	-9954
x	-9955
à	-9956
z	-9957
,	-9958
W	-9959
C	-9960
è	-9961
H	-9962
ê	-9963
L	-9964
S	-9965
N	-9966
Y	-9967
E	-9968
M	-9969
D	-9970
A	-9971
P	-9972
V	-9973
ç	-9974
!	-9975
Q	-9976
O	-9977
B	-9978
F	-9979
û	-9980
ô	-9981
î	-9982
ù	-9983
R	-9984
â	-9985
G	-9986
0	-9987
Ç	-9988
U	-9989
œ	-9990
’	-9991
1	-9992
À	-9993
Ê	-9994
K	-9995
